[PAD]
[UNK]
[CLS]
[SEP]
[MASK]
!
"
$
%
&
'
(
)
*
+
,
-
.
/
0
1
2
3
4
5
6
7
8
9
:
;
=
?
@
[
\
]
^
_
a
b
c
d
e
f
g
h
i
j
k
l
m
n
o
p
q
r
s
t
u
v
w
x
y
z
£
¥
©
«
®
°
²
³
»
¼
½
¾
×
а
к
‚
‟
‹
›
€
你
送
，
de
the
in
sa
la
##s
of
en
and
##e
##a
ang
to
##n
##i
el
der
un
di
die
##t
on
que
is
se
den
le
##r
##o
ar
del
na
##u
et
und
for
was
da
##en
des
an
il
as
van
10
je
##m
by
les
es
do
una
nasa
2011
##y
##l
at
al
er
##d
og
##es
km
##k
von
du
11
with
2000
con
per
los
##er
av
med
no
est
2010
het
och
2012
dem
12
por
he
su
si
som
from
2014
it
2015
2007
20
species
pa
that
earth
im
##na
##an
ja
han
##ta
2016
dan
2009
das
15
##te
ni
##ne
ug
va
2008
30
24
world
2013
om
2006
18
als
mit
his
ka
te
para
ha
com
##h
new
##re
data
une
##da
##g
em
os
observations
14
16
au
##us
21
##c
##in
par
13
las
sie
dans
##on
det
##ni
2005
##ch
##ia
25
##ra
##de
che
19
##ing
life
17
son
yang
000
az
2017
##ja
2004
so
ein
##le
2001
til
22
op
od
2002
##is
##z
ve
war
um
ne
wurde
26
are
mas
della
over
28
fur
database
##os
##no
##ti
zu
september
var
##la
23
##et
ist
2003
updated
were
pour
sur
am
be
har
co
auf
##do
##se
za
org
##ka
which
eine
or
1999
ii
##to
all
##nt
##ar
this
##p
##va
27
##je
qui
##ma
mot
lo
film
mm
##ed
ou
1998
29
also
one
##ca
first
post
entre
finns
had
##li
sich
ny
06
po
##as
##b
san
uk
era
##ce
##ng
nam
ed
##ri
dos
##j
ur
eta
may
##v
university
1996
has
nach
history
dari
rainfall
100
1997
checklist
red
##ie
01
31
met
##ko
##si
runt
##sa
foi
album
non
cc
john
aus
mexico
system
1990
##al
uma
bei
download
##f
annual
her
classification
set
their
who
1995
its
1994
este
fra
bug
not
dei
##ke
but
##ment
reading
1991
ma
population
bis
kirk
af
ze
after
##it
1992
auch
2018
1993
##ki
me
yn
50
##ci
under
index
two
##em
dat
ser
pada
ir
familia
ta
##ga
alla
national
##at
##um
##mi
mais
sua
york
www
men
##ly
man
fue
door
she
time
have
city
they
##ba
##ur
land
meter
##ge
ya
1989
mai
##ve
american
##za
dia
klima
40
##st
plus
bir
1980
ho
parte
press
general
ao
din
##ndo
##el
##io
amb
##man
ce
zum
1988
http
april
november
##ro
els
saint
ini
mao
02
serie
part
##w
yuta
state
hij
dell
##ny
##x
been
county
1986
werd
school
1987
international
1985
genus
einer
seu
other
ca
qu
1984
united
club
##den
05
##ul
##lo
##me
tu
##mente
come
1970
##ju
up
##ten
when
werden
mer
cu
mission
##ya
07
tot
model
oli
04
paris
michael
august
sciences
elle
##ung
iii
durch
##ze
1982
1983
1981
##ji
sin
can
##ek
##ku
1975
month
##nya
tropical
500
1945
france
juli
zur
dal
1979
us
digital
into
1972
there
during
ben
more
##or
till
##di
william
60
1978
1968
##om
##ak
cac
1960
pero
1976
area
map
pas
maria
##ban
##ow
nicht
ble
nay
##co
december
south
##kan
monitoring
1977
1974
200
1973
ad
year
##go
##ho
team
states
ng
nord
park
tv
usa
##lar
1971
##2
st
mo
music
climate
oder
later
einem
nan
you
region
sind
uber
tres
landet
08
bi
jean
years
##ts
out
north
##1
due
ei
sus
paul
1969
att
wird
most
32
##ler
35
cover
ki
art
only
david
geiger
peel
1967
hess
##ha
london
lake
09
three
80
robert
03
bu
lui
##ren
fan
hydrology
1950
45
west
##ns
vi
about
65
elevation
voi
1962
1944
delle
band
version
than
1965
ete
##ir
ye
river
alle
subspecies
##3
final
fu
oktober
1966
juni
1964
some
ban
##sen
##sta
second
where
kada
##cion
between
familie
song
inga
##jo
##lla
nu
tai
##0
1961
##tu
##nu
kan
league
series
einen
wie
would
ke
ses
1941
washington
grand
##ik
mes
1940
asteroid
300
1939
##des
90
1963
grande
##ria
james
70
400
##wa
sono
kay
comme
##be
peter
##ter
charles
made
hans
rio
high
##ou
him
pro
company
##am
millimeter
##ine
group
division
##ky
##tes
##rs
density
george
ab
district
##ben
##ske
ano
1958
33
##tion
##ski
vom
wurden
noten
day
modis
bo
nie
then
gran
##ers
##ov
##4
place
1956
##un
##ina
sao
tour
long
1959
34
air
best
america
1943
my
36
##ssa
love
gli
sud
##ry
born
li
unter
such
india
union
##gi
1948
used
solo
##ste
house
pe
##zi
1942
##ic
##que
1957
radius
##ska
central
hoc
radio
hat
##rt
1930
known
1920
##il
ci
ten
rock
tanan
1954
##land
##ion
seine
family
berlin
museum
##ot
00
dass
name
while
##nte
bat
people
will
society
tra
martin
ko
average
vor
base
1946
##ok
##mo
##ig
college
president
##ista
1955
##nia
##ita
iv
santa
care
##vo
many
1938
thomas
pod
lan
cho
these
1953
zen
##ton
dit
##ut
bij
##ii
ai
##res
july
1949
1918
through
information
season
1952
british
kao
point
hoa
##id
##les
##5
single
ile
richard
oxford
44
canada
via
we
##das
1947
##nie
any
##ica
1936
age
march
##6
well
##che
38
june
go
game
mar
bien
metro
prima
cm
live
east
##ken
public
ning
##nen
being
##ea
##iu
sau
records
them
noch
mars
before
became
1937
37
pp
including
nao
creek
##ol
video
village
##gen
original
waren
sein
##berg
1951
show
indonesia
europa
number
top
vol
jose
##cia
home
fa
social
##ty
dr
##nd
island
total
october
jahr
ut
##vi
service
black
football
end
both
against
star
##ner
award
station
##th
ali
42
list
won
four
##7
stato
uno
1933
##he
re
nur
january
##nes
##lle
media
census
roman
##ning
ex
hi
64
##ada
local
48
times
italia
center
1935
king
open
39
modern
1934
festival
1919
andre
work
pay
nos
since
seit
kilometer
suo
##so
1914
century
##9
##au
##ble
what
amin
##nde
if
volt
radie
don
like
##tt
centre
louis
premier
ale
##ant
41
##vat
nom
##8
1932
1929
##ida
nem
##ll
lac
tre
43
55
1928
##zo
##q
major
real
##lt
##lu
casa
primer
until
however
##cu
joseph
hun
##der
chi
line
wa
1917
47
royal
600
government
##pa
1931
##pe
##tas
75
cup
##ent
early
contra
association
encyclopedia
ay
##len
pri
deze
##ite
seiner
take
##are
now
1924
town
##ist
sowie
news
cong
worden
ing
1927
##du
california
##ad
white
zwei
main
program
science
thuc
sem
januar
hill
hall
1922
1925
pierre
back
1921
ia
power
1926
sul
##ai
52
hatte
##by
site
anni
sistema
##hi
##ger
meg
anno
46
51
last
china
jahre
released
aber
same
1912
juga
wala
##men
based
kingdom
called
##lich
sig
party
patag
##mu
1923
##ck
dar
seus
fc
old
february
##nik
ra
following
ga
ville
natural
##ien
cd
meme
played
australia
journal
##zen
##ies
49
nun
##ian
book
italian
##ischen
diese
principal
rader
thu
##ert
several
law
etre
zwischen
henry
1900
##ere
mi
800
1910
##son
ic
##ana
cap
young
lang
56
english
church
dieser
see
##ach
antonio
1913
hon
##ire
nome
tri
vo
cada
##ron
##ische
culture
54
premiere
italy
bay
smith
great
jan
##ura
women
juan
net
niet
off
form
eines
##ru
research
director
use
opera
small
former
##bi
each
1915
madrid
nei
television
role
pais
##ted
roma
bbc
cambridge
death
street
web
##ini
vat
fin
150
##ud
nova
##ata
ans
country
##sk
england
marie
water
play
member
road
europe
##val
##rio
wat
record
japan
hai
##ige
53
jeho
##im
##rd
1911
marine
tom
84
production
##cht
##dor
christian
daniel
##ene
punkten
order
found
mei
little
##bo
pela
##nin
finale
mark
700
pdf
debut
##ley
1916
58
prema
##tte
centro
francisco
special
57
edition
ele
seva
##ych
kg
##ks
jo
saison
capital
pre
tan
##ling
office
popular
side
1905
present
ciudad
1908
##lik
musica
internet
third
59
five
good
frank
games
fr
##sti
##ova
##ran
thi
nell
big
karl
1907
itu
studio
fut
##chen
night
gegen
development
project
plants
##era
##dae
stadt
februar
near
##ier
nr
online
down
province
jahren
##nda
around
phan
institute
ong
ky
##ice
force
##gan
berg
pelo
european
manga
french
uz
western
animalia
located
##ven
six
just
##tor
ersten
##ius
noi
##han
german
andere
ces
way
120
##lan
1906
nad
held
championship
mat
professor
1904
story
1909
ili
another
##gu
##tus
large
began
##ee
children
##zy
jr
left
because
army
asi
arts
ac
mae
families
edward
awards
ingles
primo
aussi
95
zeit
lee
##ux
unha
##cy
control
named
##bu
far
##ui
bang
africa
85
bio
match
sy
mayo
##ei
dam
xx
services
##lor
liga
##ano
global
sen
mu
desa
id
kom
alexander
62
##dan
angeles
##ique
building
mayor
did
tim
##ker
field
##nak
banda
##ue
names
moi
super
reference
88
carlos
##tan
ez
tam
seg
bureau
plan
word
sto
simon
episode
72
lai
could
tempo
mort
anna
##ting
col
mountain
vu
##ato
##ua
ba
education
court
fire
built
##ego
##ques
within
##tar
250
iki
said
##ls
type
drei
##tta
civil
jedoch
head
theatre
##we
##dir
##liche
position
ket
francais
##jos
books
partie
ela
lam
##mann
ich
barcelona
86
##ville
iran
sea
took
82
nature
66
carl
along
coleoptera
##ido
volume
friedrich
department
wahrend
mary
##su
atlas
deutschen
oslo
1903
published
99
zo
let
tren
business
million
bad
63
mens
##sch
##jen
etwa
67
still
blue
beim
human
brown
santiago
##sche
mal
council
##burg
##van
planet
1000
members
anh
denne
##rat
96
##ane
orang
car
plant
free
player
##ang
tem
1901
community
very
##kin
61
federal
teil
nhat
##nim
dung
piano
##ros
pel
pop
costa
##ico
jones
81
kuh
##ret
jack
97
own
##ris
dai
tym
green
regional
gan
vers
1902
98
##ove
how
luis
received
pays
dort
ter
68
##lichen
83
ihre
served
bila
1890
##ao
etc
##ye
metal
frances
mundo
##pen
chicago
studies
again
indian
##use
satu
departement
fou
##dy
mehr
##jas
texas
sam
##gt
76
airport
##ima
kann
kam
marco
lat
design
hier
nas
include
93
eu
qua
meer
##ade
amerika
late
led
78
bank
academy
##ile
fort
##nas
##ara
##nym
##ise
important
spater
bao
dall
92
universitat
##ari
wieder
##nek
##rum
albert
those
##ure
sang
tak
stand
died
jej
spring
vart
##tti
##one
todo
magyar
71
make
##ation
antes
website
case
##ino
##nja
##ity
yr
73
taxonomic
##nih
74
77
williams
##uk
musical
route
class
port
space
haar
asia
although
##leri
91
1898
##ate
##lin
mis
hotel
lost
walter
argentina
vier
economic
romania
magazine
##sten
minister
69
dvd
political
##mer
ti
##lis
avant
your
body
ottawa
##sky
arte
round
run
87
##lig
ara
900
1897
sir
ate
##ah
1896
##ver
even
points
language
thompson
##ber
face
max
heute
sai
##ele
father
wikipedia
volta
kun
act
1899
victoria
89
villa
israel
among
different
full
mr
latin
according
johann
##iert
1895
##ena
ende
windows
##zu
right
##ito
article
next
seinen
##nom
##ksi
gold
days
title
review
##nti
chu
##nce
monde
##ive
##bol
##nis
##og
groupe
wo
store
twee
werner
fine
##sel
terra
seinem
dove
##ms
iucn
##inen
election
##ais
bill
##ys
##ham
military
southern
forces
ju
79
94
##per
causa
light
##mas
##ono
northern
australian
short
##ona
bet
much
leon
min
agus
##age
collection
once
1889
mount
theo
##vu
network
tema
lu
tal
included
##wy
luc
##sko
jacques
##ici
ari
html
periode
##sia
1880
dies
support
##pi
fel
suite
##ore
copa
oster
##ras
sunt
##yn
110
grandes
##vel
course
style
liegt
cultural
bereits
germany
hy
level
hay
lokal
official
pedro
sans
scott
##ds
register
##ium
fins
portugal
films
##sse
##net
1870
board
tras
dezember
francois
ilk
municipal
often
zuen
report
##lia
erste
dann
ray
vice
##ati
movie
date
kanada
code
adam
parti
bas
konnte
god
##kt
using
summer
puede
alan
works
standard
sport
instituto
eran
joe
construction
students
##let
career
vii
songs
marz
described
get
period
minor
##ford
1886
front
nuo
scene
action
##ide
viet
verlag
race
##tet
1885
wilson
##ves
##isch
yo
##het
##ira
zone
ovat
police
##mus
poi
monte
without
##chi
tro
koje
maj
areas
harry
##uri
##ges
battle
material
deutsche
ham
##od
##kom
##ft
eo
meyer
sol
##fa
sub
1891
##ring
alto
qual
utan
##igen
##rn
##schen
##ungen
##iva
roi
miles
##ani
ihm
columbia
deutschland
trade
dien
library
guide
##bar
campo
beste
##las
bestar
gant
manuel
kim
##ong
moved
sitt
##tos
rang
130
1888
cao
ihr
otto
nationale
prince
##iem
##ens
alta
##ende
similar
health
##ala
mare
ag
kot
##able
nebula
empire
lord
master
never
##eg
jorden
hop
square
##tic
jackson
selected
etats
sports
##ese
##ser
##ete
rei
bol
vita
chinese
fall
iko
hot
arthur
management
nara
quebec
lange
allen
##urs
bar
afrika
established
file
##aren
chile
##ula
came
johnson
autor
##rie
##tis
chris
integrated
common
hand
status
##sh
jazz
professional
half
ru
stone
gemeinde
punta
neu
motor
middle
nar
##yi
various
##ps
##rea
##ede
written
dio
1878
jesus
##nan
study
jakarta
mac
anti
maja
##ht
##nta
performance
##ff
anderen
##ern
##rna
structure
##eri
##nza
##ali
page
##ym
1883
forme
track
hospital
fi
circa
##tik
1887
michel
##tra
medal
actor
munchen
valley
janeiro
##jan
hang
ok
##bus
inc
making
girl
papa
ana
etat
produced
haben
mike
vil
canal
##ster
platz
vie
##po
paulo
##ket
##los
liste
having
kirche
eastern
dag
##ika
drama
giovanni
##dd
norr
wikimedia
##ix
heinrich
given
cross
married
ultima
teams
living
##field
philip
together
##cs
steve
sun
alt
bob
##tat
##ac
virginia
taylor
jos
heart
##sis
1860
##eni
##ag
policy
##ez
aj
##ey
morte
went
##hu
cinema
1884
every
xi
started
forst
queen
160
##rin
toi
militar
nordost
islam
vai
anne
google
loi
##nos
become
nama
1882
1881
signifikant
committee
##vy
sky
russian
akan
dabei
##line
victor
ep
1848
##ami
tao
russell
stad
sei
private
quale
##gar
jim
color
champion
florida
##ios
rose
extension
jane
##rte
konnen
camp
ort
release
lub
stati
corps
billboard
publishing
bac
180
##heid
change
dance
marc
oscar
nin
institut
ihrer
toppen
railway
nen
140
away
sera
##iste
##tia
technology
source
tran
damit
republic
1871
seven
##mis
##ntes
##ld
roger
ft
fer
##ncia
##nika
##cos
##gang
sos
complete
modo
lap
dictionary
ohio
origine
gov
1st
marso
##ale
bez
junior
ima
wien
ss
##tie
lead
historical
##fe
chef
henri
entertainment
hanh
viii
jawa
eric
euro
##ela
term
##ell
lag
francaise
bil
section
mother
##osa
cast
##rne
pres
tay
buenos
##mes
mine
##ingen
##tz
poco
samt
neue
commission
##ss
lady
fifa
peru
cas
systems
##nn
1879
##rar
ihn
1864
##ard
autre
ging
armee
anu
cruz
double
malaysia
ass
dy
unit
plu
1876
foundation
created
today
alfred
start
few
chief
syn
unis
##hen
win
aires
##mos
hong
regiment
beiden
boston
aven
our
staat
franz
stage
##tel
lewis
phu
ol
##ille
software
kong
jahrhundert
fast
mario
robinson
african
##lta
##ose
francis
regionen
sede
korea
1800
##jon
bajo
range
##ding
contro
##cha
here
eit
woman
conference
pendant
tony
text
pho
tong
zweiten
##owa
moment
transport
mange
klub
katalog
kwa
##ism
test
russia
##ties
independent
guitar
##ella
##ging
##dt
biography
regie
##illa
hit
vir
1877
##cus
ua
ora
1863
##cke
##iti
miguel
announced
ford
ada
1875
sound
##rer
wife
##tura
1865
##zie
boy
return
channel
interior
working
person
founded
cau
upon
##ram
pere
amsterdam
##nog
hau
austria
tang
duke
1867
##iro
val
islands
leader
gang
polo
sama
namen
johannes
zealand
titel
further
commons
amor
##ous
japanese
1868
##elle
##rus
golden
ere
##iv
mans
##ett
worked
weitere
bere
britannica
##ava
thai
event
universal
vs
patrick
wrote
evolution
##llo
##lli
stephen
revolution
1850
recorded
gen
nguyen
125
ann
oro
personal
joined
barat
##cher
1872
wales
##zia
competition
aircraft
ji
nations
##zer
georg
xiv
##tive
dead
1859
actual
carolina
##nus
santo
gibt
canadian
deutscher
1866
viec
##niu
diesem
low
future
novel
##dia
1869
linea
hem
possible
garcia
units
lei
brian
pred
##est
though
##ili
erhielt
sent
petit
superior
1500
101
1862
medical
ant
machine
##kat
##rol
dessen
miss
arten
dias
geschichte
homes
active
neben
generale
put
##ses
training
andrew
##ola
operation
##nica
filme
grad
returned
catalog
1874
fernando
pot
mon
##ora
##een
current
platt
zusammen
##ons
##nou
sv
angel
pode
others
ludwig
musik
2nd
##haus
dc
##ih
##una
##eur
disco
porto
rights
##ente
encore
creation
faire
tant
##yo
##oi
systema
corporation
ecole
format
ly
male
rome
inn
##lui
##ich
bridge
week
##fer
dark
ensemble
geographical
inte
kad
eng
##wood
punkt
##via
medio
elected
branch
kas
##tre
##ando
primary
##ori
elizabeth
apos
masa
eus
davis
institution
##lus
##ay
gas
oko
growth
fox
##op
sinh
len
gab
coast
rat
##feld
##gh
stars
mitglied
gol
considered
genre
continued
jersey
ente
puerto
hett
ese
beach
example
hade
mint
grace
##ngen
temple
##tek
tez
pacific
colombia
##dad
ek
kommunen
entry
elements
kang
opened
mondiale
pan
tokyo
##lio
##isk
disse
##jac
sad
##don
##ila
##ivo
bass
##bb
##set
wolfgang
prime
ise
posto
wild
must
idea
claude
##asi
too
ona
segle
##tica
tutti
theory
artist
vista
available
##iques
##bach
winter
should
brother
note
publication
##met
kui
sehr
##ota
105
issue
result
boi
##dur
internationale
miller
roy
##mia
mil
senior
##lse
genero
kod
playing
bot
##hus
##kim
help
wide
navy
ernst
##ral
formula
zunachst
carlo
editions
chart
key
blues
ton
child
bernard
##uta
rey
tina
sale
enrique
administration
##tal
##rono
chateau
sat
dog
cet
##kou
hockey
##her
##san
##tak
kontinente
wenn
##lige
##if
sydney
##fi
susan
keine
direction
hag
##pan
energy
computer
stadium
sex
##itat
players
##vano
pol
schools
bekannt
große
daughter
coach
princeton
##eren
originally
pr
##ness
##heim
mid
170
1830
limited
girls
sons
bilo
ch
alex
himself
ku
bruce
##nts
appeared
##ero
zuruck
does
justice
khan
pakistan
formed
##dores
box
nang
budapest
developed
fe
rosa
mere
##rde
pennsylvania
yari
ball
##ement
currently
auto
stockholm
##owe
organization
process
places
ireland
104
##eta
theater
spanish
regions
contemporary
##nar
102
novo
bell
forest
diego
donne
spider
manager
sm
mest
celle
chan
georgia
township
##erte
across
deren
boys
rural
decada
##ean
gordon
character
stor
##ije
##get
kako
lett
##ias
bade
addition
hollywood
##ae
orden
##hin
yer
joan
embargo
##oni
zif
events
##ult
aby
minutes
samuel
ohne
kali
negli
milano
money
##ments
bai
industry
normal
signed
ihren
cat
lon
tap
1840
sohn
sue
student
nicolas
andra
garden
##oa
##sion
ivan
##werk
ger
notes
illinois
schon
leben
castle
editor
less
albums
douglas
orchestra
ante
##ces
##ct
##hl
fase
diverse
##cka
##tto
formation
appointed
anthony
ebenfalls
tale
werk
doctor
cause
singles
close
plaza
##wan
##kel
historic
##kow
##rak
silver
lower
industrial
tho
basis
gruppe
rue
##sto
dom
dna
movement
laut
honor
coupe
sta
cum
ancient
sense
personas
daily
1858
ltd
market
##vas
attack
anderson
moderne
hinh
##bile
dieses
##erd
iso
food
taken
##menti
federation
unica
##kas
##aria
foreign
self
##gas
nba
champions
captain
disney
gun
pages
##nto
##eti
220
##ß
neuen
roberto
georges
350
particular
talet
cara
hard
enw
decide
ani
sine
khu
object
mondo
features
seen
mezi
mix
decision
religion
kommun
operations
ground
lingua
##nal
peak
eight
rugby
mann
ole
memorial
hamburg
remix
vascular
bzw
edo
erst
leipzig
befindet
allem
ontario
massachusetts
howard
##art
nich
parts
##ott
paso
walker
##isi
tournament
geen
milan
organisation
##din
##sc
microsoft
##nden
##vis
##min
michigan
##tur
prize
1856
##bel
##bia
romana
leo
kilometers
torre
ver
gar
franca
throughout
1854
toda
need
saat
aver
kommune
einige
240
barbara
tae
regular
tid
lima
##dal
sold
porte
##way
##led
conservation
dj
opp
##up
franco
grote
ins
moon
unico
##heit
##lari
blood
jeden
groups
bon
##less
arab
fm
largest
dir
urban
carrera
tag
surface
1849
performed
soviet
arena
##iin
gave
porta
oriental
shows
train
beide
wegen
oa
simple
##ante
directed
got
##liga
bin
cargo
1855
deep
venezuela
valle
projektu
moore
##zne
includes
secret
individual
tat
semi
ob
##sie
christopher
hal
fick
bronze
frankfurt
analysis
female
##bas
nato
results
manchester
forsta
103
fourth
selbst
frente
view
mexican
##bles
vila
großen
catherine
survey
label
engineering
norman
singer
##mar
catholic
toronto
pat
defense
countries
##aa
brothers
1852
greek
##tore
##zas
lot
##my
charge
security
##sson
problem
above
##ute
designed
begin
gabriel
nove
youtube
julius
stanley
kevin
reserve
biet
##leg
quello
cai
ring
mau
sedan
nachdem
producer
##kar
ran
behind
115
##aire
basa
tol
##red
officer
elections
baby
cia
lopez
size
statt
begann
legal
levy
##ec
##tum
111
lane
despite
##car
3000
haute
verso
##mat
##rsi
philippe
##xa
##zh
ever
ap
tegen
arrondissement
sri
months
##tzen
cele
108
##tin
complex
eventually
checklists
##dar
##ides
marina
weg
call
##lag
wall
istanbul
imperial
##oja
maurice
valencia
nation
titan
burton
sierra
##ins
leading
drive
1851
##ful
107
clark
nummer
##oon
killed
finland
mind
sultan
##gia
##wi
##ans
##and
190
quali
mise
sala
##yan
##nne
cel
gary
fram
##det
1853
animal
##isen
kleine
lawrence
campaign
##tique
##stein
klasse
##pt
past
uns
concert
sites
termine
prin
raja
johnny
asteroide
##asa
room
generation
wood
ferdinand
irish
ice
staff
##iya
sp
stefan
grant
cola
##stan
rest
introduction
rene
##az
baru
forte
bus
bishop
dalle
racing
heavy
7th
upper
anterior
ak
command
kr
chez
pak
230
trat
usually
##yon
##ient
##rade
isla
nelson
ned
anton
electric
##vos
##zar
paper
##king
##lon
##cki
philadelphia
anderem
drie
direct
##zza
gay
johan
hitler
##zes
congress
bull
thus
##uma
higher
featured
followed
native
moscow
hann
studios
related
cox
##vin
immer
##bre
kanal
hermann
giuseppe
censo
##bes
completed
##ping
##gio
kent
hamilton
express
denen
firma
josef
##zenie
directory
ul
kelly
##oma
##endo
unesco
abu
abc
graf
##kent
norge
muller
colorado
clubs
##var
1847
##logia
##rit
highway
reste
stal
bod
montreal
goal
##uti
##ires
zou
nou
##vet
image
give
friends
vietnam
dream
210
##gel
alberto
championships
##ovi
##lat
contract
##sku
106
marcus
##ierte
persona
hos
guy
##fen
writing
360
##hr
fiction
maison
##sin
gunung
##iga
assembly
speed
gallery
##ades
author
##eli
niveau
##usi
##sus
gene
naval
cok
112
projekt
better
jahrhunderts
chau
##ette
##ats
tac
instead
soon
109
billy
##ait
hugo
sungai
128
##uar
italien
true
##nici
pare
ship
iron
commercial
rus
voice
##iz
gruppen
primordial
baden
largo
##nich
allerdings
combat
finished
ain
reported
andrea
ami
oil
dave
indiana
academia
##dorf
politik
degree
1842
lokala
missouri
experience
##ama
rol
saw
##lly
stop
nahm
certain
hills
spielte
##ture
nobel
ian
ata
gian
##erne
executive
amt
bau
erstmals
funf
135
alice
awarded
least
know
folk
##mon
either
minnesota
tika
britain
##well
associated
remained
mode
inter
##nder
strong
pl
##ries
topographic
publications
able
americano
dazu
ala
##esi
1844
##mit
cases
##elt
##nju
##ev
tau
discovery
planta
almost
ocean
orde
gore
mont
bili
jordan
pc
##sed
##ania
##xe
siege
##bau
##cas
##tions
hab
winning
fred
sc
editors
youth
spain
felix
scientific
monument
gom
##zeit
stories
sebastian
##bert
beginning
##mal
nine
schloss
contour
statistics
##ues
profile
nick
bit
##iche
documents
##eu
sr
##wie
hold
##tori
tracks
alte
musee
running
baron
access
sina
jorge
say
##mt
oma
threatened
flora
hari
ea
vincent
##bra
medicine
gewann
liberal
traditional
##rad
adolf
1837
##ab
added
literature
peace
republik
genom
kind
##oli
mississippi
libraries
##usa
##ish
hatten
mois
bois
117
governor
##iden
tennis
distribution
yu
involved
rather
sherman
influence
congo
archive
mang
turn
sino
##uz
soul
artists
find
1834
##fall
samme
jimmy
##eo
cancer
want
atlantic
1838
1835
##igt
cha
echter
bruno
##ischer
engine
##dio
wel
sit
sainte
agent
##rse
element
meta
campus
roll
##vad
##stvo
tower
menschen
quyen
anime
##sy
wadi
charlie
##gs
renaissance
wang
bach
außerdem
baker
fauna
dana
interview
avenue
seis
practice
##schaft
verde
ito
basketball
success
fame
writer
logo
tin
##stand
wing
benjamin
helsinki
280
##ule
figure
aufgrund
eli
seat
napoleon
outside
cuba
jon
donald
turk
recent
wies
ms
nes
tree
##tud
##nca
tod
##int
jonathan
hohe
##hed
ross
kwam
brazil
guinea
##und
##ensis
##zel
jaren
programme
260
brigade
gehorte
previous
dame
hele
vladimir
evidence
ryan
provided
prior
allo
casti
sector
passe
replaced
grund
score
capita
vest
wrestling
wis
feet
##worth
santos
jacob
##oes
financial
rolle
recording
123
pec
##eva
harris
orbit
architecture
protein
rodriguez
##mine
mitte
electronic
situation
mobile
cree
pueblo
113
tradition
116
##lah
stock
rom
politiker
genannt
secretary
sondern
##wo
tok
eva
##dra
seme
medaille
cell
sometimes
below
muc
114
gray
politics
danach
rund
gesellschaft
##nse
gonzalez
episodes
##cer
##gos
larva
diesen
##tig
kansas
sarah
##zet
pole
delta
letter
##uan
##weg
montana
salvador
baseball
lincoln
##ines
price
viele
ost
##kih
enn
pi
##yen
oh
apple
arizona
cam
going
sister
robin
matt
dok
wright
mig
##ngan
harvard
parliament
##ary
##ap
##dom
1812
450
aphia
cities
keith
classic
search
length
ty
##kus
editorial
landkreis
whose
greenwood
previously
dues
flight
additional
3rd
pass
apollo
systeme
alem
relations
interest
haut
##ande
duc
oldu
scotland
##har
oliver
adams
lagu
##rik
##ony
##nut
frau
270
##see
academic
jason
1833
##ized
esse
nuclear
presence
gehort
mtv
aki
haus
kreis
##shi
cape
provide
graham
1832
erik
vera
mass
##vic
temperatura
##essa
asian
kunst
victory
skal
issues
sw
quasi
conquest
parents
tog
##mm
##pp
##like
plays
opening
1600
##pel
nye
##zt
##kov
muhammad
andy
##smo
solar
1820
##ør
dod
introduced
pictures
herbert
##bin
assistant
zero
sara
scale
121
feat
estate
move
bilan
rad
mehrere
blant
quest
tales
placed
##lles
collins
owned
fight
##ort
link
parc
ken
wolf
##its
##hn
produce
122
##port
frederick
##ema
means
lines
protection
clan
taking
upp
##lem
approximately
fernandez
morgan
conditions
bulletin
##pu
pie
phase
bezeichnet
heritage
##ial
towards
seines
genere
##jar
orleans
##tro
engelsk
religious
bisa
##amente
bird
welt
rata
3d
##lie
ll
pt
##kem
##pus
##row
##nsa
peninsula
stark
figura
portal
administrative
famous
kamen
155
edwards
##isa
##tivo
118
drug
epi
delhi
127
effect
##gne
successful
gare
lea
morris
piece
##sos
hms
cesar
orange
750
##more
##ain
stated
osa
##hy
buildings
klein
samen
rise
friend
literatura
font
tas
charlotte
plans
letzten
##kia
##borg
##zni
reached
##iere
prof
perez
mana
insgesamt
pablo
polen
property
jewish
problema
listed
##isten
thought
originale
inside
villages
corte
always
##hausen
lp
##xo
brought
fuhrte
##cal
brand
table
##sal
paz
hung
126
mari
124
##film
ellen
##kte
##istes
##uit
##rata
##cida
camera
##vik
mor
weiteren
##sing
##house
maps
changed
dragon
westen
continue
morning
konig
gebiet
soll
christmas
vision
str
jeff
especially
rate
##vio
scored
notre
mesa
raymond
kin
##hip
decided
aa
fritz
straße
andreas
medieval
pilot
mile
host
##dre
##jem
##hon
massa
steht
distance
chat
folge
##zan
filmen
##bili
deja
sommer
basic
##ast
pietro
besteht
travel
##dig
regime
sing
ro
crime
##sme
kiba
multi
cabo
falls
##esa
1200
corso
airlines
##ione
145
##pes
stewart
oz
goals
extra
kur
##yt
paolo
quand
aller
anders
##lte
zurich
dato
soc
required
1829
republika
kane
##gue
coma
wind
articles
##nem
##nna
##out
feature
variety
ph
##del
pasa
##iji
alter
kon
itself
001
##ep
fact
1700
laura
artikel
cela
##ney
kort
winner
worms
demi
holland
impact
shot
silva
magic
ambos
phil
129
##zed
democratic
allan
companies
##nun
rafael
##cho
##chten
hijo
lived
deutsch
freedom
ihrem
meeting
fishes
aid
zudem
parks
##vani
ofte
deu
marshall
##fu
uc
agency
##maa
runs
lives
doch
##kog
##sz
144
matches
##ets
wisconsin
comics
##teur
generally
##nger
kerk
bong
duo
##yle
##ib
virus
insect
5000
hits
sources
location
miami
175
gemeinden
assim
ministry
##ches
##sar
134
kai
wars
birds
anfang
donna
tuli
##town
unique
##ving
activities
steven
vel
forum
circuit
highest
societa
ih
provincial
franklin
tennessee
chemistry
dutch
arnold
significant
##llen
vocal
eugene
kurt
uniti
changes
pal
things
blanc
##jet
sollte
authority
playstation
##onia
##tol
termino
murray
voe
hours
arbeitete
ingen
dean
131
deal
##cat
fish
schließlich
pieces
weiter
init
##rung
fille
carter
##keit
geboren
##lja
elisabeth
jerry
sola
nat
##erde
loss
attended
##logie
takes
milli
##och
fand
commander
dela
taiwan
imdb
notable
affairs
mali
pana
ev
nahe
mag
income
##ming
millions
storm
challenge
alliance
kennedy
melbourne
##itas
lucas
nee
132
##zka
nota
##cen
cost
oft
##bal
audio
##rice
retired
##kos
lies
advanced
concept
julia
##rada
##imo
franse
1824
sony
##wer
133
tochter
physical
golf
parties
defeated
antoine
1802
##hoz
poland
##nge
java
studierte
whom
warner
fir
eru
fo
vote
einwohner
jam
cut
##num
engl
##lne
languages
ung
theme
comets
multiple
152
lyon
stadion
closed
resto
value
##pet
grade
olympic
conde
words
campbell
ramon
asteroids
##lde
##ales
##rent
##ward
##ulo
1813
##yu
beyond
##elo
kurz
dau
poste
##ase
kinder
stations
##ology
palace
alexandre
fellow
##py
sexual
##ust
margaret
norden
##aca
ds
##ligi
mille
terminal
oregon
prison
ranking
dona
warren
hu
phi
intentions
classes
##hez
gegrundet
koln
panama
##eda
jerusalem
split
astronomical
fosse
commerce
##tine
##noj
##ksen
galerie
comes
alternative
horse
essa
lau
##ieren
comedy
##tina
cafe
allowed
boreal
fora
diverses
primi
mg
turner
iowa
sg
rica
colonel
##non
chemical
##eron
sci
hindi
contains
why
esti
minute
grazie
julie
136
beat
##nga
look
factor
greatest
basen
langs
outcomes
##nant
barry
##ped
content
##bury
dollar
sechs
mano
totale
##sat
letters
energie
##bt
initially
##uda
luna
populations
rolling
projet
fet
vain
weekly
##for
application
1790
fantasy
edge
##iri
##licher
terms
##erung
##rz
unternehmen
bee
perennial
153
##rek
##iel
interesse
matthew
clube
137
card
tomas
mini
older
149
evans
deeds
##rian
read
dale
jpl
atp
139
castro
territory
##skom
steel
tel
block
kultur
earlier
charts
##ef
haber
mart
loma
##ech
numbers
##shire
192
rules
stil
##wana
madonna
crisis
gift
mua
##nel
denis
ended
ridge
alba
##ical
productions
##bor
1801
luz
geographic
##eno
constitution
create
##kie
nim
gilbert
##tein
##gy
programs
wobei
roberts
finally
dates
##seg
##nz
philosophy
punk
bergen
chairman
br
sk
##une
wayne
sean
1816
##wski
liverpool
question
bevolkerung
colonia
parker
1822
vater
##gus
##ites
characters
##ric
##ament
dire
earl
problems
hope
border
uni
jay
##sm
hip
##ario
sanchez
1016
##nier
visual
noted
numerous
flores
savanna
zagreb
jen
##isation
ward
##dus
types
chr
suden
overall
counties
1827
marcel
##anie
bd
saga
launched
1819
houston
165
lay
##til
tuc
spent
##tea
meist
greater
##zone
##idos
320
squadron
already
vm
mexiko
##bil
hin
detroit
invasion
serial
chapter
statistical
draft
scenario
rouge
138
##cky
185
mel
mountains
sung
##inin
##stu
mala
rada
personen
##end
expedition
archived
gerard
louise
num
143
reich
##aba
tendo
fifth
##bahn
##ub
grave
function
tener
erfolgte
##hof
tek
##hes
fia
remains
specific
ligt
break
seite
goes
appearance
gut
stuart
sexe
kommt
deus
mrs
dwa
economica
##istas
cooper
20th
tatig
austin
toe
origin
quelle
##over
bal
141
afghanistan
rule
dek
initial
##zon
146
resources
arbeit
##oto
1817
forms
##fel
kara
fans
##yla
148
bem
np
insbesondere
musste
##head
brookings
##lerin
schweiz
metropolitan
wi
##ole
##ovat
biti
videos
contact
##mir
##esta
coming
broadway
welche
rico
##meister
joint
statistik
labor
147
molti
##kal
##ill
done
yellow
##stadt
represented
leonard
##cker
fund
palazzo
##mp
husband
##pur
habitat
hour
##bio
alone
clara
revision
cbs
negro
arc
fly
neil
technical
extended
kentucky
##bat
natur
##aka
continental
lisa
separate
##cing
choi
##stad
##rta
fischer
temperature
##ions
knowledge
eigen
mori
misma
acht
linie
majority
rod
agriculture
amo
australien
##chaft
products
choice
##ento
partei
##tem
marche
scottish
##dit
kabul
sui
##inde
dich
conform
1809
alabama
animals
versi
##kon
positive
ernest
creative
##ors
continua
serve
##ßen
vivien
favor
142
guatemala
queensland
actress
sou
##ists
trio
farm
##rem
hunter
marriage
vivo
##af
emperor
guardian
##tone
happy
keep
knight
opposition
##erna
##aga
viz
mam
bc
##kor
christ
folgenden
bhi
intelligence
##bank
ud
idi
disease
1803
fl
##yer
increased
memory
enough
##scher
braun
sweet
springs
server
familien
trust
mata
watson
##iger
intre
alaska
sofia
effects
mail
ps
meno
oklahoma
sole
##ator
exchange
hd
platform
entire
partner
promotion
##nk
genera
selection
domingo
##rado
towns
mula
konnten
##nat
murder
mien
transfer
serbia
spirit
artes
linux
rich
cold
dong
masters
dublin
communication
olympics
entered
eyes
##can
##lands
chong
##uer
##log
mora
nicholas
relationship
##rkan
quality
##ities
opere
journalist
##eben
eduardo
##iko
convention
nya
##pun
##eus
harold
operated
151
jeweils
rai
something
lua
##ged
beta
meet
bereich
subject
##vit
sankt
leave
insects
molecular
uses
passa
##lage
##els
eye
##uh
##aci
academie
makes
##gal
nintendo
idee
ddr
leis
gebaude
maryland
##ller
yet
environment
lloyd
weil
isa
alten
linear
hell
biology
anschließend
##tua
erhalten
bl
seasons
##rium
males
eden
job
##rato
bond
##all
##sza
sint
crew
starting
drums
whole
##oz
blieb
rede
flying
treatment
angola
##wald
##gung
sales
##zin
becoming
vert
##vou
159
singapore
expansion
verwendet
mill
##bos
rain
##stes
##mie
maine
comic
##chte
races
barn
torres
##ics
arroyo
guest
schmidt
fill
##gte
##gon
cal
texte
truc
##pis
bli
##eria
dick
ri
subsequently
loc
figures
##enie
altitude
bobby
critics
##ees
##ude
##ann
coa
caused
156
carta
browser
wechselte
weeks
passage
sull
ron
focus
##yr
byc
mostly
permanent
serra
##mont
##ncy
particularly
gap
apie
reviews
##aar
##lingen
kata
##pia
##dat
prozent
##ual
batu
latino
kommer
cos
##sas
hart
##ned
hulle
proceedings
sunday
##uga
##als
atlanta
##osi
broadcast
fem
programma
203
sort
frankreich
images
kenya
mitchell
bande
nl
banks
##seen
casu
studied
response
walk
arms
##tio
denn
maximum
##pin
innerhalb
ukraine
##wane
fuhrt
##dag
meaning
##iku
ubernahm
##ike
168
staten
resistance
dus
gilt
ecuador
kings
wagner
situat
harrison
muslim
dor
tung
fighting
##ssen
erreichte
##has
zones
##rze
vienna
##pas
##eko
##tation
##vali
cand
method
individuals
presented
abraham
##umi
learning
sund
forced
larry
carmen
longer
darauf
sik
canyon
galicia
besonders
nego
verein
polish
physics
salon
tours
sma
weltkrieg
dock
mannschaft
##list
holy
##nze
dun
dice
motion
lama
diversi
might
giam
##ering
chance
##sce
##cina
trans
wanted
rob
##rina
##imi
supported
product
critical
osten
trial
models
soccer
houses
isabel
roland
fair
core
dennis
gano
kill
##ones
nigeria
passed
interes
belle
azt
verschiedenen
##rk
camara
supreme
cook
terry
osterreich
##oso
leaving
ralph
##ost
versions
19th
kaiser
referred
perry
##olo
##bare
workers
instrumental
tiga
grey
##ores
pet
diri
bp
zweite
foot
ina
bulgaria
eingesetzt
bare
laurent
akademie
muss
baten
##ikan
hughes
fik
serving
housing
signal
biri
nhk
recht
preis
davon
raz
dallas
shakespeare
kerajaan
alpha
economy
facts
##ime
thailand
shown
ot
##ello
##10
talk
elite
tribunal
railways
##mel
##ttu
aga
corona
sens
gewahlt
militare
##oko
leven
rail
korean
bush
330
tall
lor
materials
cricket
provinz
existence
##inger
##gun
visa
sarajevo
##yd
judge
increase
translated
meister
##ded
wei
##tare
safety
ngu
larger
julian
mixed
entstand
errichtet
themselves
troops
##eld
poor
166
##tok
abd
kiss
##of
lanka
##aro
reports
couple
noe
schule
indien
kulle
##rant
provides
nancy
##lum
jer
161
watch
raised
##gin
hindu
jules
karriere
##zada
sergio
cuc
##eten
appears
##vil
tommy
studium
giro
vis
##tische
politician
macht
uruguay
beispiel
225
##inu
recherche
hoe
capo
description
##dni
typu
stan
205
classical
bruder
leopold
##nic
planeta
158
seda
##wr
composed
armada
##hat
rick
richtung
burg
boeing
nfl
bergig
nave
glass
legend
##kk
##gut
salt
ricardo
mk
aktiv
formal
dorf
intr
##kka
methods
singh
noir
arabe
cars
##aje
##ved
pois
millionen
550
beautiful
##ization
##ode
fields
##sberg
daher
163
##bs
##ologie
demu
seventh
##uja
##ction
ships
serien
forward
##iet
acid
##tien
aret
kate
bolivia
failed
canon
nothing
egypt
pai
##teen
therefore
fit
moral
universita
##ote
rahmen
ley
boli
##xi
danny
nearly
damals
##tii
erschien
retour
manual
spielen
picture
mercedes
philippines
##eb
##gd
##eres
2019
heat
emma
##rate
binnen
##kes
##cek
clear
##luk
entwicklung
residents
unite
pena
voyage
newspaper
alain
bachelor
4th
info
illustrated
luke
attention
chen
reed
##oc
marques
edgar
##zug
##gg
direkt
##cta
##gli
172
grands
1400
finden
##uru
frauen
ebbe
moving
buch
##kiem
bestand
jahres
##rni
res
berliner
##but
says
milieu
rap
metri
1797
##back
twenty
guillaume
##eto
fleet
brief
kung
##mek
maritime
pink
krieg
districts
ferrari
176
verder
##isti
communications
hero
##lit
behem
etienne
ars
##late
technique
gemeinsam
##ij
vann
eri
garde
##yk
iraq
applied
believed
roles
##tera
birth
##iers
162
##rede
beijing
mainly
##dis
instrument
crown
turned
soldiers
lid
colin
peso
dobe
onu
infantry
224
lenga
told
diger
newton
##ont
##dung
insekto
resultat
dakota
hp
fusion
nazi
##ings
secondary
195
claimed
infanterie
latter
tur
levels
##platz
chang
##rka
colonial
aun
hudson
##ston
179
##oka
lance
##con
beaucoup
ambiente
##straße
apa
##rel
##alt
tank
##nsis
laguna
gate
arm
conflict
floor
grandi
gloria
stort
##uro
offered
dresden
activity
independence
sortie
savo
##ivi
helped
##ance
##oro
##oy
hugh
##ovic
baza
isola
archaeological
cio
217
##geschichte
kes
rev
regina
approach
##tad
andres
nepal
##zzo
raison
habe
phoenix
acquired
##kap
##dne
amateur
stelle
coi
archives
206
##ated
republican
facebook
railroad
169
sweden
##rier
grammy
1775
##icu
seattle
origins
##hold
##band
##ndi
##rra
account
650
utah
tell
indica
gara
bowl
256
##ois
erneut
kar
nada
projects
joachim
properties
importance
environmental
triple
boris
##ular
manner
einsatz
guard
venus
guru
carried
consists
hen
lucky
engineer
##sag
213
publishers
##nud
argent
##ligt
senator
risk
##vie
onda
techniques
sowohl
nina
pond
ganz
##eth
##hem
##tv
marvel
##nka
whether
tamil
natal
covered
182
##tand
##bie
##tischen
##lies
links
organ
rare
allt
spiel
teresa
founder
tanzania
##win
##rir
##eau
disc
ließ
tots
##00
208
resume
driver
frere
teen
save
jun
princess
angelo
##iera
##pie
franzosischen
debe
##unda
inferior
##bon
pote
trains
bear
##ord
##tif
1300
cay
hawaii
brook
candidate
compose
athletic
##aya
batman
##uto
eigenen
##oti
connecticut
talent
zahlreiche
##sco
medan
olla
cameron
promoted
romance
215
winners
potter
ideas
##yl
181
##lege
helen
##lom
regierung
sis
arbeiten
sorti
##att
heaven
tunnel
##cis
budget
median
##zos
raven
gi
occasion
emmanuel
188
grecia
##hs
conta
bonus
##tati
formerly
attempt
screen
##recht
earned
proto
##wen
baja
ig
responsible
think
cleveland
leadership
proposed
##ond
butler
leger
consiste
##ake
turkey
207
cf
204
contest
##lang
202
agreement
rios
build
##gem
cumu
178
desert
discovered
##ration
edinburgh
frans
aviation
wave
remaining
212
caroline
##com
potential
reality
huu
##sca
##zem
183
1980s
palais
##zing
beatles
lars
aide
gav
##tle
##por
bremen
##stas
magnus
211
##ace
regel
##rre
##anti
monaco
##ume
sevilla
stare
insel
##cken
##zak
ronald
officers
wu
##ako
mir
factory
swedish
##zil
nearby
draw
diaz
baltimore
ted
asked
govern
184
shaw
pressure
restaurant
klaus
##tni
sophie
##tate
##wn
##rius
czech
##nischen
222
longitud
jennifer
380
jozef
##ierten
##bro
extreme
senate
##ierung
holstein
teacher
gegenuber
neo
##eja
##water
darunter
alma
flow
171
foto
allah
bretagne
animation
174
rs
vegas
hof
##rica
beginn
stein
bern
alles
liv
smaller
fills
##gues
chelsea
tor
##tung
##lara
theorie
ander
hands
step
tip
##cum
aria
##lare
historie
helena
##dora
isaac
##unt
elo
ram
kama
bases
##lea
sach
unita
##wing
wiener
##nam
issued
pari
##ures
craig
##aus
##ory
oest
sitz
vancouver
cite
ehemaligen
ruta
tar
settlement
linda
ion
adult
##tne
islamic
##ock
auguste
starb
340
nuk
indonesien
reis
##lina
ello
sob
demo
##eer
poetry
actions
yen
exterior
realisation
fell
gregory
tiden
##tter
thing
scenes
desse
ibm
natura
##itz
industrie
emil
ages
bor
diana
holding
economics
horn
regionale
##tou
##ants
##eme
lage
zog
##mba
kategorie
faith
##gis
spencer
##arna
186
teh
221
##fo
rong
173
##lot
##low
##rdi
diocese
##dale
efforts
##eck
ankara
regne
reach
composition
##niku
##hal
criminal
ama
sinn
nbc
highly
werke
universe
parlament
jonas
eurovision
##tvo
hod
heutigen
##ize
beispielsweise
alessandro
vari
adrian
##cted
competed
verschiedene
marketing
loan
4000
taip
199
satellite
females
acting
believe
kus
reina
cristo
electoral
gr
bonn
staaten
comandante
campana
neste
hr
geht
constructed
renault
##ious
allow
eso
expression
appearances
directly
hansen
leaders
performances
spanien
##kla
territori
mc
##adi
mutter
wallace
justin
circle
traffic
herman
##lna
##cies
findet
bolo
evil
details
##lim
mandat
internationalen
##hte
porter
214
muze
sand
philosophie
##eca
applications
jakob
1970s
alvarez
api
huy
initiative
households
halle
maestro
louisiana
mio
1780
ecology
1784
definition
1787
fun
revealed
##rien
dur
berkeley
poet
##tit
edu
mee
vive
lion
sieben
fighter
zwar
trophy
##sation
parallel
netherlands
##lir
statue
bord
##bet
dl
festa
broadcasting
##dik
kein
lb
violence
tru
198
elu
##raum
##ymi
snow
basse
tax
mogu
percent
nomination
managed
bring
collaboration
capacity
northwest
partit
lassen
translation
kuala
antigua
firm
theodor
recently
diamond
mimo
zuvor
likely
##zek
derde
typ
##uo
battalion
##icke
raw
leaves
1788
egli
##ulus
kaum
komun
laws
alli
questions
kor
cycle
glasgow
##fs
radar
vaak
##tow
##cz
##enne
graduated
equipment
pou
calle
artens
anglo
fare
tj
sign
primarily
##idea
vokal
prominent
share
##ess
yard
##gn
##gie
probleme
guns
##nung
nua
murphy
operating
dang
escape
kloster
tada
opinion
##ug
pouco
stay
rainer
##oir
209
broken
pope
##nidae
int
cea
difference
ida
cells
commissioner
reunion
pradesh
brooklyn
reforma
arter
gamle
join
ursprunglich
##halt
papers
kat
fim
##uka
##ery
##ega
angles
betrieb
trail
##ome
##jin
waters
##osta
legion
russland
planning
##lung
personnel
##igkeit
sets
joel
db
unknown
##tele
shah
toa
concerto
norway
##kle
noble
bedeutung
inne
sante
spons
kalla
underground
kenneth
##ffe
ven
demande
pete
posterior
flash
teilweise
##kommen
196
cemetery
diffusion
##punkt
##20
outre
##rda
doc
##dem
armes
journey
appear
fernsehserie
contributions
tie
progress
kleinen
kich
baptiste
##km
werken
eux
##inn
480
prej
soundtrack
exhibition
226
greg
241
mama
flat
##mme
##rich
identity
saying
vous
##lama
flag
arrived
seo
kuni
malta
instruments
##mark
##bility
somit
enemy
pista
portrait
divided
sec
##psis
leonardo
wellington
harvey
legislative
romans
agricultural
clarke
raya
medium
##fahrt
document
headquarters
nevada
zeitschrift
##naire
rebecca
##ball
institutions
norwegian
##elen
##nit
##usta
landes
daruber
dedicated
##tiv
216
##logy
##zko
##mak
matter
prie
literary
except
bala
##uen
fallen
standards
brain
riga
mia
madison
count
##strom
petersburg
erster
##iter
documentary
tage
haver
bela
probably
combined
##ters
dios
rangers
arkansas
232
truth
rapid
1776
handel
sh
hom
reihe
##kunde
perfect
zehn
##rov
multimedia
##base
##aran
raul
heroes
officially
philipp
deputy
positions
lack
algo
##ame
##iny
##ilo
immediately
reason
boat
abs
sac
##our
educational
outra
birmingham
powers
intel
communities
veroffentlicht
cole
##dou
##tai
cour
##orn
coll
ip
xbox
hunt
mineral
dienst
bands
jefferson
carol
turkish
telefon
ove
mus
bosnia
alfa
commonly
dis
sal
##enta
growing
letzte
mate
virgin
background
marx
companion
vant
noel
vale
##owi
##sha
presents
##zzi
irak
1960s
designated
##schule
jung
fest
bogota
1990s
255
reform
swiss
##ence
fronte
trainer
karo
bahia
everything
negative
leiden
viel
matte
emile
##kirche
wings
abord
trad
vehicle
lie
275
foster
mercury
becomes
jury
mason
purpose
folgte
residence
nde
tik
jin
twin
suit
ks
maire
##rno
geological
##gate
mental
florence
ghost
##hme
194
borough
giving
grupe
ee
globe
mathematics
##ece
feel
brasilia
squad
##vara
##wick
etwas
relative
raf
223
felt
typically
248
spieler
transferred
verdi
##ldi
toledo
yemen
structures
##ttes
ihnen
relation
##etti
cura
amy
gone
rogers
entro
schleswig
nash
gerhard
presse
##zte
claire
ferro
seoul
manhattan
corner
##tych
##park
ideal
##inta
meisten
sullivan
fara
rive
renamed
##bit
asl
ons
painting
##skap
##gna
vielen
##icht
##uch
protected
haufig
310
##bora
spin
oni
anniversary
americans
holmes
kommen
540
pool
volumes
pain
shortly
ability
hektar
##uses
wells
programming
pos
parking
##rana
resta
dusseldorf
teaching
218
##liste
komen
tiger
relief
gh
southeast
##este
lich
##ein
quickly
lt
kb
shanghai
facilities
##uli
##side
##ots
##nci
hie
persian
rice
nm
##ised
io
pure
twitter
fashion
ahmad
designer
##mina
titled
beck
weight
ore
kant
ordered
##hir
370
wake
needed
##rom
##lam
koch
pris
heinz
##dh
bahn
238
420
materia
neven
##off
gymnasium
grew
##die
christoph
kiem
arsenal
faculty
yale
owner
eagle
reservoir
accident
unde
australie
5th
sixth
##tata
hc
quarter
runde
bangladesh
ceo
##tir
##verk
direktor
rekord
freshwater
##tten
##ekt
##time
target
symphony
jih
##cle
##ense
session
sudan
asp
condition
##slag
##zor
russe
cor
eski
twice
abdul
follows
mhz
actually
sel
causes
nominated
1100
kids
##iki
##ncies
etude
kha
kell
amerikanischen
credit
planned
chamber
dood
offers
christine
##sze
##gard
##uji
stella
cent
rita
ehe
organized
##cza
##rine
##seite
frem
trend
conducted
##gren
##iens
igen
defined
1770
premieres
offer
taxonomische
##osti
##uf
blog
234
##assa
stanford
produktion
##vao
poble
zeigt
siehe
drew
jai
testament
phillips
##oru
constant
##nymi
ahli
string
bron
ik
##sman
##dna
heidelberg
acts
##aal
madagascar
desta
cable
##nc
pha
440
tomo
1750
varie
monster
##fica
##twa
aqui
##rati
clinton
audience
adventure
##ders
dee
tua
resource
elementary
annonce
variable
dafur
##chia
##name
profit
##ars
experimental
writers
enorme
dagen
devil
destroyed
##uu
bros
luxembourg
galaxies
pau
follow
fear
aaron
midi
moglich
pointe
stream
##erer
zuge
abgerufen
owen
##anas
giu
removed
cabinet
damage
footballer
print
trees
rival
zhang
collected
##tza
##urus
lucia
rachel
##tna
ym
evi
composer
sid
materiale
hinter
yards
intended
##ismus
yi
acres
##cin
acta
virtual
opus
humans
ruth
straight
angle
253
##cios
architect
baik
reporter
##mata
coup
pittsburgh
##ilen
##eng
zeitung
##par
englisch
kongo
lied
##rza
unei
kid
accepted
resolution
hungarian
buffalo
##gua
laten
bara
dawn
ec
industries
wasser
ncaa
##vine
##nae
axe
305
amount
conquista
toto
critique
deste
##veni
##gado
defeat
##oo
##form
domain
deriva
granada
nice
##igi
koh
wir
##mesi
arrive
fisher
presenti
participation
munich
##ixen
blake
312
227
bible
2020
biological
##uso
dome
votes
participated
teheran
bmw
plate
effective
##hia
##hos
continues
representative
##sma
machte
spot
normandie
files
begins
crystal
stellte
folgen
widely
##kova
##med
weber
##ckt
xe
mina
mines
##zal
massimo
walt
stevens
edited
233
laboratory
finance
armed
##buch
standing
##fte
##idi
##gruppe
liberty
jeanne
##rot
viola
billion
##tul
großer
weather
ine
younger
##lay
symbol
ebenso
nino
vorm
carbon
internal
claims
sprache
ova
##fat
##wel
##ringen
somme
##itu
##nau
karen
##ln
265
amazon
bed
manh
paula
vina
gives
hohen
sammlung
maitre
gelang
##git
assigned
262
avery
##onen
##eks
##lav
ioc
legge
##lata
wilde
##ws
alongside
radical
jupiter
plane
shop
##eit
##iec
haven
enrico
shi
##igung
ira
trop
mozart
##iten
simpson
##yne
message
update
marathon
facility
monica
eve
gouverneur
armstrong
gehoren
monuments
kraft
spread
tron
ibrahim
captured
terror
besuchte
prava
##mana
edmund
serves
mida
219
maniere
nor
cr
pace
strike
228
mad
romani
##krat
insa
##nato
##eet
##ents
nong
##vien
purchased
sehen
copies
eigene
teu
graduate
grove
indo
tama
territorial
bryan
##fie
manufacturing
worldwide
cop
adopted
##ioni
##sum
wong
##inas
##eza
##gir
dt
##esti
rand
##rena
compared
asa
rank
organizations
speech
pale
375
wins
##mate
hinaus
effort
category
stellen
szent
marin
bristol
hollow
minimum
agnes
setzte
robot
romeo
handelt
chase
madame
hungary
woods
##nova
boca
sok
gibson
quant
alive
##nea
dreams
##hou
supply
terres
alberta
begon
todd
236
check
exit
##angan
##iar
interieur
##bung
easy
##bina
lit
befinden
parla
simply
limit
enige
365
##wagen
dylan
##lica
ranked
##ppen
rex
295
viktor
shadow
gad
mentioned
strecke
##jal
posta
blu
enterprise
performing
dry
mah
moc
nebraska
##rang
sanger
prasident
passo
noto
tum
##gebiet
fiat
fece
isi
##oria
forever
251
horror
##bad
bahnhof
declared
perioden
koko
tato
520
chapel
finish
pearl
249
mensen
##rah
user
lever
gleichen
liebe
##yar
voru
patients
##pat
##bok
difficult
saints
dadurch
trek
schrieb
850
touch
linnaeus
##yev
mills
lyrics
##ave
325
investigation
estimated
saturday
rocky
paraguay
306
ind
formen
jump
cannot
spiele
jet
##amen
maya
##lad
europaischen
bernhard
cassini
##liku
##tani
paid
literatur
einigen
##cation
looking
killing
legales
auflage
sum
##sant
246
angela
##sey
remain
incident
##uden
nui
##far
##rf
ride
greece
launch
hosted
tibet
##kli
lah
##rten
##zett
lao
bordeaux
systematic
agora
connection
##fication
recordings
lokale
pluse
ota
stammt
oba
lands
gard
##ip
1772
##nata
gp
gil
usd
##war
provinces
cv
adelaide
sides
frac
ratio
arabia
powell
solid
really
satt
chain
6th
bald
display
movies
##edi
254
pu
homo
##gde
rotterdam
beauty
portland
stile
##gens
##lek
representatives
austro
integral
ultimate
##entes
##ffen
admiral
arma
kamp
sugar
fundamental
filma
gain
chem
wildlife
dritten
terrain
chair
410
fonde
##lere
##gat
reaction
ker
angels
vega
thema
curtis
duty
##lagt
begge
zeme
##nese
genutzt
ways
##ienne
expanded
##stellen
doktor
richmond
attacks
1777
##weise
vehicles
entstanden
visit
nielsen
buried
##wang
indie
inspired
ballet
##air
evening
liberation
##ining
avion
miranda
recognized
solution
hampshire
household
##vus
##horn
##roy
largely
##dere
papua
stehen
pia
chose
##llas
weiterhin
gained
##sne
sah
orders
niger
##rou
ae
historian
##oku
android
sl
##gor
mw
poems
detective
reduced
sudlich
enfant
syria
postal
emily
obwohl
erreicht
##mena
##ctus
##ojen
covers
markt
ge
exposition
weniger
##qi
##elli
communist
titles
##chu
jura
citizens
ziel
sequence
vertrag
catalan
emission
feu
conservative
##lic
##rende
sd
##iat
ahmed
fruit
mcg
##lagen
minuten
##yes
tournee
##umu
##stone
rivers
manuscript
lasst
unu
schweizer
##bou
emilia
passes
tram
patricia
ah
dynasty
stefano
geography
271
##oe
advance
kula
penn
verloren
noche
##rita
430
##erie
orient
stellt
cathedral
strand
usage
amigo
codes
jessica
vogel
edit
medien
tyler
modele
##atus
bangkok
theodore
mean
##rden
portuguese
brasilien
descriptions
##rile
##eru
tribu
langt
adventures
##lauf
propose
niem
ending
sil
starring
##chter
##mai
gai
##ogo
##yat
##cca
sprint
##nelle
hija
gebaut
giant
##tsi
##rao
##lee
presidential
arme
##ebb
##agi
palmer
harald
agreed
##alo
yves
mara
annie
equivalent
242
mitglieder
##uni
routes
##pon
ming
folgende
kinshasa
303
composta
##eze
seal
ware
##istica
##jeni
conrad
##kse
hardy
##kami
hk
denmark
israeli
pair
euros
deutlich
fungi
maka
someone
worth
huis
southwest
objects
schneider
fata
groß
providing
##ogy
uga
taught
honduras
wiki
##minister
boss
coz
##aste
##pte
##mmer
wenig
expected
rez
cohen
losing
leslie
fond
bude
germain
gets
compilation
##zac
##rare
visible
bennett
gente
saudi
sporting
luca
entra
##jima
cita
zas
##mentos
newly
##cco
##stellung
##uce
norton
reader
nassau
##cm
royale
dil
ends
gleichzeitig
needs
occurred
amerikanischer
supporting
##sburg
task
##eh
saha
emi
pastor
gener
aufgenommen
collections
##eln
nordlich
occupation
285
diesel
##tha
contribution
##ktor
##kken
seri
kleiner
identified
kosovo
write
kultura
hilfe
##urt
grundete
mp
##vole
kura
jeremy
outstanding
##stra
##akan
lec
##nig
kept
debate
##enden
cave
offensive
ottoman
##bla
tech
##sid
switzerland
courses
##fort
##cine
ego
mining
orlando
petra
##eke
missions
ibu
stalin
fuel
##yor
curso
itunes
ski
244
variante
1760
graves
martha
shell
##eel
legenda
mol
enter
montenegro
##sun
photo
460
receive
hopkins
oak
##odi
benannt
##enu
##dek
officials
sure
amas
lys
##rlo
##ob
alam
mem
pascal
lakes
ouro
patria
luce
darwin
vit
unes
##pers
chosen
##azi
##scu
connected
##yard
akkor
domestic
radi
##spiel
266
northeast
soldaten
##enen
##ph
priest
##nare
edwin
315
propaganda
gardens
claim
##verein
runner
2500
##vere
##massa
##ew
giacomo
try
##nien
333
suffered
existing
sulawesi
fully
basel
adaptation
tehran
##ief
unas
divisions
##fy
##light
alternate
dre
##zation
##erten
ras
twelve
hundred
josh
##iak
##dle
zentrum
##ple
nesta
glenn
scoring
romane
necessary
taj
##ington
testa
loop
##born
blei
##rag
boom
##rig
plateau
reyes
##lerde
##sit
tedy
albania
raum
tara
##eum
ave
glacier
erwahnt
galaxy
crazy
allows
cool
##selt
sq
seats
weapons
suicide
arene
facto
marion
treaty
jerome
lorraine
systemu
ngo
##iba
##tics
respect
gamma
walls
cash
isam
ide
develop
hole
belgium
marked
276
arabic
tells
##rades
concerts
gaz
##rti
presto
guido
##iza
revised
portion
statu
toma
baba
##ege
stones
bezeichnung
##rand
gram
##sam
manila
masjid
dute
lucy
ruiz
path
247
matchs
##odes
variant
organic
mystery
##now
landing
confirmed
##aten
innen
##niki
gulf
crash
##aki
##12
##tka
##cate
##znie
##vent
##fuhrung
falling
receptor
mach
##orum
containing
hala
boulevard
jake
ska
##lane
##lation
palermo
interpretation
montgomery
##uca
kira
##bah
soles
row
rising
##owski
dispute
oldest
bel
##cich
malcolm
##mista
##wegen
wiele
jews
nathan
##nov
liegen
dum
levi
dollars
becker
##fera
##urg
quae
sisters
##kko
##vs
injury
kho
##piel
##oren
nomina
technologies
norma
drum
##ago
##yama
##uhan
moth
completely
mehreren
visita
##eken
gali
stammen
surrounding
tried
representation
luther
resulted
behavior
leone
##ndu
##olla
omar
##rino
resulting
gelegen
actors
yol
trip
functions
analyse
rend
##rani
##ible
authorities
veroffentlichte
clay
##ware
##rg
chuck
teile
##museum
granted
transportation
shape
##dea
preto
kino
##hall
firme
struktur
richter
clinical
##lene
bro
nacht
tata
areal
##tim
##rane
carry
paar
kita
##nten
altar
bischof
koska
einmal
rua
sed
##pad
263
##tner
url
aspects
anda
ezek
centuries
##uin
blanche
dele
artillery
##rene
enda
gender
##ums
truppen
drop
##tors
lexikon
brussel
shan
ill
paradise
franzosische
##yna
390
strange
absolvierte
##rico
##sinin
jesse
humana
stuck
cannes
decades
##sla
daraufhin
##bing
##preis
##try
hector
reine
##dza
permanente
##etes
##inga
ready
gt
##hle
qualified
##logi
abbey
macedonia
fork
patron
understanding
##hur
##nay
senat
##owo
bezirk
mb
killer
##spieler
returning
destruction
heard
escala
vasco
vl
atom
##book
hus
jong
##lita
prefecture
erfolg
frame
bottom
investment
##igh
##dura
284
laser
context
identification
normale
kis
gewesen
##cci
fabrica
##star
essays
distinguished
##tge
albrecht
##sor
capture
##rini
##beli
kontakt
lara
gattung
michelle
brooks
##kur
##ligen
deli
##dita
nicole
euren
##run
sidney
mosaik
##zena
ernannt
methode
##lov
iris
npr
ellis
langer
parke
##tab
sami
creating
forbes
joy
ash
##sak
obtained
axel
pur
harbor
bratislava
##indo
##vor
##ick
interna
##oca
fbi
f1
##hain
philippine
##ely
frequently
kalas
##ises
vienne
dati
##fin
chevalier
##kant
maxim
gira
address
##nces
phone
incorporated
tone
pen
berry
##iding
##eka
##pil
principals
cham
vinh
patent
streets
##wac
ethnic
haiti
jamie
##antes
natus
pine
etappe
##usu
##uze
rear
parole
kritik
259
welches
considerable
boot
##fan
autore
interactive
showed
##vari
##wat
##upa
verbindung
##vati
bildet
charges
##inis
stern
dancing
##fuhrer
##vers
##avo
versie
trotz
roosevelt
azerbaijan
bild
lle
principles
chun
proc
pad
pato
motors
amerikan
inhabitants
orgel
292
automobile
geworden
herzog
##gono
338
sieg
##sil
absence
shared
retire
suggested
powerful
script
##sts
1740
halt
vereinigten
##szy
holds
utiliza
fortune
hubert
psychology
flowers
setting
dunha
##kh
##tag
267
##ogi
##dge
##iment
marts
mur
spiller
##heiten
hook
##cite
##tri
##erin
##minen
##av
roads
##eis
issu
wahl
transit
##ukan
montes
values
wet
passion
##jene
470
blind
agents
##onal
##qui
consecutive
##kum
tourism
kral
ghana
familiar
empat
controlled
##vec
doing
silent
courts
urbana
rooms
##ppe
##sso
##lice
verheiratet
##ovo
internationales
molte
18th
##ops
gent
nucleo
##bir
eman
##hrt
##nil
##toria
pm
##ellen
toward
chia
selling
##kta
inner
betty
ach
occupied
subsp
anv
##xes
economie
gor
gradu
##enberg
##yre
offices
funktion
getting
verband
telegraph
hors
missing
##itos
testo
height
operator
doe
diente
560
rush
##inte
champagne
entitled
321
anden
studie
swift
nuna
newcastle
##vert
##gere
##quia
succeeded
uganda
legende
sharp
subsequent
##tant
mund
suc
##stic
finn
bomb
mussen
##mma
nachfolger
##fied
britischen
diversity
grec
##gesetzt
hull
##gau
##itet
burger
skin
##grad
rally
pio
sorte
tore
tenor
rating
machines
##cks
ehemalige
tribe
basin
segment
cirka
##utan
ell
conto
suv
entwickelte
##itt
##halten
distrikt
turin
345
##tasi
##uel
arrested
recognition
tests
##dium
extensive
pg
##data
estonia
fragment
perform
soldier
coal
ono
ihres
lander
oral
einde
erzielte
##mbo
aceh
bailey
hauts
relatively
311
##uki
geld
seni
genes
ns
allowing
asti
sessions
##aos
##ares
rhythm
bost
obama
##iser
achieved
wonder
olympischen
##cast
westfalen
bisher
##jam
##cc
##him
ausbildung
founding
broke
franchise
irene
engage
partners
versus
basket
lions
##osc
goteborg
##vane
networks
depi
wine
##mans
sogar
##dige
weekend
begriff
zoo
shore
##iente
lik
emergency
failure
modell
trinity
achter
##aine
nema
##sna
##alla
##eden
##rande
establishment
##fallen
bali
avo
md
##fold
chess
##yet
leder
grau
violin
einwohnern
calling
##ivu
statement
besitz
großten
masse
steam
##uke
sic
##ened
cloud
lediglich
soil
funding
bevor
jensen
ales
##hart
poc
1950s
oman
weltmeisterschaft
##sena
##oba
senor
heiligen
slam
spielt
claudia
##hara
historische
palm
##yce
##ives
serious
##itus
elektrik
heller
fatt
##culo
hochschule
cure
explorer
verden
flache
bought
leeds
passenger
sar
324
lumpur
335
##vir
##aris
exploration
##sok
rider
reasons
mira
pick
totes
##owie
##eon
christina
desire
politischen
rocks
jeder
##yka
toyota
##rm
plats
nag
##ziale
##gemeinde
##lini
##day
ones
developing
minder
gods
simples
##cene
attorney
##rano
rin
divers
maler
316
ros
##atz
prop
etti
##arten
grundung
argentine
kode
wil
else
##rla
##the
##bly
##ree
##raz
richardson
##kra
aired
soli
mene
terrestrial
dicho
komponist
##aires
##sted
plot
breaking
alias
dimension
##fra
cin
richards
##plan
##cil
##bridge
parma
dadi
halfte
coalition
##fon
speaking
inch
##eid
##zana
##tale
singing
oer
corea
crossing
kehrte
##tini
idaho
tribune
##sim
trei
lig
commissioned
lois
gabor
sap
experiment
##anta
atelier
##oga
stiftung
holiday
sections
amit
neal
knapp
derived
settled
assistance
##iy
selben
dynastie
##ister
##rist
kaya
saab
cooperation
matahari
bradley
##cko
moreno
joaquin
liber
goles
spre
schema
fuhren
ungarn
caracas
prevent
##hill
##graf
depression
298
dieter
##linen
##tty
640
declare
##tier
rechts
progressive
umfasst
gerald
##nach
stephan
examples
saa
##nburg
interprete
transactions
6000
musi
317
##rim
directors
schwarz
excel
photos
zusatzlich
users
##rai
fraser
brad
##zm
ent
option
sonic
alban
creations
lateral
vertical
slow
boa
mito
churchill
approved
unione
johanna
##ined
##ological
capable
tribute
##kis
filmes
universities
calls
geri
fie
lou
politische
churches
512
bryant
leg
lung
##gle
midnight
322
##alen
korte
cornell
device
##wal
kuri
manche
entwickelt
summary
heiratete
cousin
##tom
bodies
herschel
diploma
sandy
##had
gebracht
leitung
trump
elias
isle
unable
seconds
##von
milton
window
kop
gewonnen
anhalt
factors
zal
##ners
befand
pride
hello
##lun
denver
andrews
rennen
##aru
##hman
astronom
chant
esser
##polis
##oor
aged
##hm
herrschaft
refused
panel
kristen
russisch
glen
marks
##verkehr
prove
error
machen
lige
##old
fought
ff
reduce
peters
##vista
##alan
th
antarctic
shooting
##cola
##aw
a1
kariere
gra
nokia
adjacent
ahead
bolivar
##nent
einzige
unlike
leiter
lena
summit
weit
jeffrey
##dde
##ffer
##sini
attempts
gott
##sione
burns
demand
pico
rete
##arte
##cular
großte
brisbane
##colo
570
humor
##uno
besitzt
##ally
downtown
1650
##oh
##iad
343
##tano
##ght
medici
hydrogen
rescue
orbital
##kond
ici
caesar
##aze
##isse
conserva
lennon
inca
##yal
brunswick
##nai
dante
##zhou
##nahme
uppsala
##verband
moldova
employed
connor
rama
decade
##xia
tokio
rode
backing
razem
airways
fat
morrison
engagement
nikolai
##ivat
##inden
vas
##spor
950
##olu
##front
rodrigo
musiker
territories
##landet
wohl
robertson
##fn
##board
equal
random
##nimi
erreichen
severe
ace
##som
chad
soft
basta
jp
purple
pub
##iles
hiv
columbus
eleven
ponto
eiland
mention
##rma
rollen
regisseur
impossible
strength
lar
reynolds
##wert
##istic
##nsi
creo
piti
roots
finds
bone
casino
##force
saber
fruhen
hearts
##dau
grenze
matrix
##inio
##gene
partnership
lotus
cei
monthly
rodu
belgische
fines
##esse
strip
##kten
heights
##bine
danish
##pos
##lade
shall
##gol
##berger
404
oc
hair
teachers
##illo
lin
##rats
##atzen
352
camps
##stel
baile
elf
##not
spor
glory
##gata
roof
##kers
bones
clement
detail
pic
332
328
##utu
##uet
frost
crimes
ultimately
fiel
##schrift
damaligen
keys
increasing
fruher
##bne
##cak
views
ultra
associate
klassen
alman
willy
thousand
##anda
##oss
##abb
strategy
mega
classics
##tere
sculpture
##onne
randy
mela
wedding
transmission
categories
##chus
##hre
##right
sandor
dropped
##yana
trouble
walking
hammer
exception
##pic
persons
314
rivera
accessed
##kamp
superman
gela
patient
oy
cry
colors
ferry
floyd
sexu
gnu
##lut
aren
##zma
##lgan
difficile
##izo
##eman
##sai
fai
determined
##menta
observe
kit
530
apart
quite
diameter
ren
##dina
parade
##ams
gill
kenny
regarding
nurnberg
visited
puente
describe
homer
##dera
##bis
monroe
lists
starts
multiples
##oke
constituency
bak
##einander
cnn
nta
hood
##tana
kring
lynn
##bot
##gent
beethoven
integration
thich
verse
midden
##reni
mathematical
gates
balkan
transition
attacked
tea
schlacht
##30
boyer
##jus
reale
einstein
capitol
##rite
senegal
gb
ninos
ati
##ppa
represent
massive
405
licht
weiß
amanda
##ax
##istische
ostlich
##sima
##mere
solomon
vittorio
smithsonian
##yta
westlich
betragt
##alis
##mani
##kop
johnston
##igo
##ijo
magnitude
##rido
enger
kunstler
nowa
trinidad
funds
opportunity
hak
perspective
reid
##chester
401
passing
gear
##cato
326
molecules
legacy
orbite
ober
##wand
returns
aids
##aat
sot
deshalb
festivals
direkte
imperiale
drake
##qua
384
gett
urma
ingrid
##tige
wenige
##sir
athens
rhein
ask
chin
friday
##ngar
kunde
termina
newman
##lda
##tot
##hung
##master
##runde
##verse
voda
abteilung
##hlen
charter
opposed
nicaragua
jaime
defensive
ene
false
benz
uncle
##here
indoor
polar
memoire
coastal
industri
##stik
brit
mt
antic
meters
nic
##ray
##quer
derek
interface
broad
##ugu
jap
challenger
##nok
##eter
mccartney
ghi
pun
tun
museums
lights
##bling
anzahl
bates
apo
echo
dao
dating
fortuna
wer
slightly
##rca
herald
gingen
converted
##kana
##rates
luxemburg
rotten
##cit
reign
mato
allies
vermutlich
skills
387
haag
genesis
receiving
ukrainian
trying
##nium
jungen
alexandria
ago
##gno
jau
##rait
representing
faced
lega
##pta
syna
artistic
staffel
jackie
10th
didn
influenced
protect
zahl
##tja
##fahren
lur
##lak
osterreichischen
rainbow
hale
jiwa
humano
##bh
##istischen
besten
mirror
seiten
##bur
vient
albuma
democracy
photography
##ieri
moss
homem
artificial
danger
vin
##gram
##bund
mustafa
warriors
langen
gyorgy
vene
##rais
##dine
jens
palestine
##uren
sech
nisan
scala
entrance
meant
##kea
attendance
attempted
specifically
##cens
##mde
engines
onto
maa
westminster
gud
dangerous
verbunden
rabat
cultures
tito
pit
dura
##beck
woody
ceremony
##ages
##ex
esprit
##teri
musicians
##stica
##ugh
truppe
acoustic
protest
##ril
praze
refers
##bte
deri
accord
##alle
zuletzt
silence
##ogen
sounds
select
elas
retirement
morales
vast
mouse
medina
carne
##gina
paintings
dient
tuo
andersen
spateren
wii
##kreis
tele
adina
critic
ausgabe
funk
oso
##omi
proper
zahlen
sito
##ison
##enza
kapital
cincinnati
fanden
focused
champ
caribbean
##kola
protoze
##ngi
socialist
##cera
##iese
insurance
##bed
relativ
herself
racial
##rid
pudo
chambers
##tog
jenny
diplomat
##pora
jugo
putin
329
##lers
##aries
artisti
##eho
schiff
differences
bene
laid
##nius
imam
familiaren
##ening
russische
rebel
occurs
disa
agente
737
1759
styles
##cea
##phila
##gner
strategic
reprise
vorsitzender
taille
eher
auckland
##rix
dirigent
##bildung
##gge
##vise
johns
rao
tomto
vino
producing
##gur
##lil
##sek
##illes
##lib
exist
elvis
abandoned
##mien
##yx
balance
##ety
##oki
cs
oceano
maso
passer
mcdonald
rolf
competitions
##cula
##asan
dada
##holm
aurora
##ndet
slave
employees
rates
rechten
##stre
dual
aspect
quarta
tonight
perth
heads
ane
frei
resultaten
zivi
memes
prave
scheduled
omega
leaf
sandra
documentation
##lf
filip
##onu
pioneer
salto
##zina
coro
##zija
rot
brazilian
corporate
schuler
interne
circumstances
junge
##wasser
earliest
##rei
425
stages
##chung
uu
saturn
shield
cp
jamaica
entfernt
estrada
##xen
##tisch
eind
determine
toro
locations
##zene
cielo
syndrome
candidates
wit
shin
kyle
alcohol
##vaa
501
##itis
defender
##fia
##hta
contained
pirates
mati
##echt
artiste
gros
##tete
##nor
martins
thirty
##aden
casey
improved
drugs
penguin
##iation
metz
##rul
zoological
webster
gama
kek
markus
vent
wheeler
reserva
##enti
expressed
dea
consisted
##amt
suzuki
surat
elemente
agar
##cic
idol
buddha
angl
themes
queens
circular
##qa
kiel
lab
##ules
hist
associations
sollen
zimbabwe
##witz
##ald
boden
client
neuf
reputation
duca
##nds
##isches
##hand
##lai
fresh
##hne
xo
cher
stood
landen
chor
corpus
##pre
##riz
birthday
##zmu
##eris
##stro
##igne
reise
request
##anne
buts
biggest
gruppi
beitrage
loser
##tadt
meets
elk
moda
##poli
##arse
crawford
expert
parku
flower
##esen
##ße
epic
##rc
##unk
headed
yes
mohamed
##tika
bourg
engineers
344
ersetzt
##nada
soprano
registered
##lone
metru
benoit
##bart
allied
pin
alegre
rna
autori
schauspieler
painter
fisheries
ramach
kristian
studien
oskar
wald
crea
prise
sols
diet
amerikanische
myanmar
limits
dro
##yra
einzelnen
bertrand
rca
##lma
achievement
ritter
327
perhaps
ausgezeichnet
bart
ciel
##gee
appel
##werke
##hum
bright
##zung
bengal
##hang
medi
##nei
tir
faces
successfully
enthalt
##tari
fonds
solutions
colony
thunder
##familie
storage
##eki
kontrakt
334
items
bari
inclusive
##bl
parliamentary
safe
##rod
gardner
##tres
##lva
distributed
dorothy
laos
chaos
##mist
smart
##ovan
##tory
kalt
roth
judicial
##ind
termin
##vene
duro
worn
##lant
##fre
wc
bilder
invited
bada
donner
poverty
stem
##umen
stores
musician
biol
pretty
contributed
ingenieur
sollten
##got
nashville
381
wise
eugen
hidden
speak
chester
gottfried
nk
aust
liege
##sine
foren
lynch
prag
austrian
wheel
maxwell
shu
bilden
##rto
jobs
##long
##jah
meisterschaft
educated
automatic
##pol
successor
gelen
##unun
lager
possibly
##tuu
mohammed
##gato
##room
mein
haft
encyclopaedia
combination
##dro
##box
##titel
gens
hardware
poesie
##elia
##vili
##lto
gala
lose
gaston
##rose
daneben
promote
tsy
consul
8th
darin
songwriter
driving
greene
bonne
pieter
conversion
dubai
##dil
wollte
janet
chapman
rapper
##innen
##bruch
lecture
ladies
sees
##emu
##lise
339
##wall
freeman
##nais
inde
tali
henne
mouth
gong
spiritual
##onie
##iq
schriftsteller
pattern
##drag
versailles
carroll
roses
uhr
neighborhood
##ied
##tang
welcome
schotte
abel
quay
carey
rim
##rdo
erbaut
##place
timothy
supplement
sell
##nische
fore
ouverture
futur
hannah
tools
##ssi
17th
disso
alger
##hler
jeg
charakter
dimensions
testing
log
shaped
##meni
sought
vero
##eves
##mite
##ucht
changing
mall
crise
proprieta
burke
kamera
##cita
falu
neun
ziemi
##ceu
essen
argument
##cce
zie
exclusive
##lena
amis
jugend
essex
components
##skan
hauptsachlich
comu
indians
avoid
findes
##mot
##sle
nomi
experiences
##opa
rocket
##yse
##amo
falcon
brick
indianapolis
##taria
##sem
brachte
##enn
occur
##mor
drawn
geoffrey
panzer
reaching
scheme
##ibus
baku
resten
glas
beer
##rts
407
sav
namens
##arre
honorary
nest
ashley
##lash
##rick
sumatra
##aes
kardinal
tons
##oid
sleep
anything
roche
##gelegt
vite
##dienst
##burn
belt
##uak
theologie
hurricane
476
planets
missa
sacred
##unta
evaluation
fri
747
volk
##hima
##ations
ond
trained
##leben
blade
##nicy
filmi
warna
scholars
##nate
trace
##iac
toni
moto
joshua
discipline
##vita
##llt
630
##mber
leads
hasan
seems
##seni
stands
##rage
insan
dali
missile
1680
##kins
arturo
goods
contrast
maintained
pius
registrar
##eita
transformation
bou
frequency
##ufen
sujet
listen
paus
gal
##berry
##hren
##pit
compete
##uir
delaware
wyoming
turns
##club
510
nils
##tsu
okolo
madeira
scotia
croatia
beteiligt
partial
winston
##bild
##graphy
uten
illustrations
quartet
massacre
hey
##lls
vic
enkel
##tru
degrees
##nzo
costs
##cre
kawas
##avi
twa
arch
antico
lenin
aura
taxa
burgermeister
authors
##hun
417
lily
fate
procedure
none
rt
brat
proved
##cte
dens
acad
manitoba
gegensatz
improve
##sege
varia
limba
##rire
dec
unor
startet
##rese
brill
quantum
whitney
nachsten
neues
processing
##dja
##zig
karnataka
counter
establish
rp
essential
##teni
mons
hamburger
##ables
paulus
ml
kapelle
##dent
stara
arti
marsh
mitarbeiter
resort
sally
wish
##nko
finalen
dogs
hectares
possession
mickey
lunar
465
installation
domina
ord
heavily
engem
militari
victims
evo
maiden
##avat
lumiere
brien
pret
pretoria
orthodox
viking
painted
##ratu
buck
wort
flor
merged
modello
cards
alexis
##bc
##ification
bomba
kampf
revenue
bout
armenian
##ladi
soleil
gustavo
designs
participants
tierras
legislation
##ked
brak
snake
heraus
mussten
observed
keinen
##wu
malaga
protocol
##cles
logan
burning
gallo
##sinde
##rau
carpenter
sinne
sven
branches
##vant
giants
threat
##vom
plante
kategori
##enes
verlor
presentation
zahlreichen
exploitation
finishing
doug
datum
##system
366
##logo
turbo
1620
gull
surgery
dietrich
edith
##his
16th
petrus
ambassador
##opus
##olt
##agem
explosion
grounds
dated
##gam
botanical
instance
heer
##ydi
maintenance
chao
adults
yan
percy
mammals
chronicle
duen
bilbao
weise
wrong
##adh
dirty
##warts
percussion
##leni
appeal
rhin
polis
circus
fete
poem
revolutionary
486
colleges
typical
##ilis
behar
tempi
engaged
##pf
joey
veronica
neuer
intervention
discos
dritte
##weit
##gabe
tatt
##hel
herb
##pal
olympische
kingston
##rated
seed
##grafi
devices
##riere
math
cliff
verfugung
vermont
##odu
joer
bestehen
reduction
output
##egen
charity
waiting
bauer
##kti
breton
hoch
ritual
electrical
##tku
##tern
##agen
moga
historischen
finding
bears
texts
ef
##onan
##mini
publisher
dier
novu
348
gesamte
##vena
lover
alien
consisting
phep
hamlet
cl
##usse
enzyme
##dam
620
democratica
##wig
graz
quo
##craft
kurs
##lega
sword
eroffnet
nt
##nicke
closely
stadtteil
tarp
adn
erne
secrets
dare
musa
leicht
willie
##halle
##dors
tied
alvaro
entirely
license
##gra
webb
##lichkeit
##iler
##bila
plain
ssa
408
bravo
limita
##nico
speaker
metern
heilige
kerala
##hie
lebt
##tun
diane
##kah
sila
voted
##isin
fini
root
##rova
opposite
13th
##arat
planes
stylu
daya
lande
subjects
625
essi
concrete
fil
stress
operate
##mic
##xu
marian
purchase
##table
bowie
infantil
clock
zeitpunkt
bees
##genommen
enam
installed
11th
centers
punkte
tue
##namen
begonnen
facade
sim
##top
##dana
strauss
beni
globo
credits
##otas
sabe
##yos
carica
wade
##fele
##dte
##rische
bolton
fuego
hassan
802
##ysta
senso
tomorrow
nien
gris
qatar
##edo
serge
##oan
resigned
konstantin
franc
##iker
##rain
add
cotton
ign
##gangen
somerset
rum
mani
reti
##linie
hardcore
sega
profil
diz
vertreter
landscape
causing
offentlichen
easily
##logische
##elte
##haven
swing
ehemaliger
riley
##ront
ruled
recommended
loch
teda
##lach
textes
##vice
katherine
podium
indem
rapido
prese
##viu
mindestens
##raf
revenge
panorama
attend
divine
noise
##gesellschaft
##inos
rasi
rhodes
##oen
harbour
hagen
##tatt
379
keyboards
tango
parent
irland
katholischen
daun
##oche
##laget
##nha
measure
680
boundary
blair
dane
doen
canterbury
betrug
##uste
##kali
milk
720
capa
##viste
danemark
marines
##jil
zool
##finale
grass
arabes
fixed
##lk
chili
##nni
canale
hielt
erfolgreich
382
luftwaffe
##care
12th
eure
schutz
legislature
elder
tension
##lou
##tide
##nke
lagos
##basis
lawyer
clusters
russischen
##bek
californie
grunden
goethe
sag
##meter
sangen
##ury
twentieth
preston
konigreich
altos
rasa
abschluss
burma
hidalgo
nights
##pot
egyptian
quick
regarded
ark
komo
##uid
##zit
measures
divide
##gui
unterstutzung
programmes
architectural
yahoo
describes
##kung
voices
germans
tail
473
anita
anschluss
continent
innovation
gross
hoffmann
lionel
##cot
mediterranean
faj
##akt
laurence
##vek
agustin
distinct
fiscal
inzwischen
##kler
wichtige
bok
arrangement
yuan
fußball
##uis
declaration
carrier
rebellion
bona
tio
langa
##hnung
bk
##fire
judith
##heter
##sgebiet
##cisi
##uge
lebte
joining
kick
vampire
daughters
tomatoes
##dron
photographie
childhood
porsche
hanna
execution
pes
##inus
hired
battista
outer
fluss
tragt
luanda
socken
dobro
##lement
##mond
decisions
##bene
passengers
windsor
entdeckt
ajax
benn
##itie
caught
choir
##lka
##talt
sahara
b2
joyce
ferme
holl
##unden
##musik
coles
remember
##itate
jungle
kopf
nichts
##gebracht
##ivity
bound
##orio
architekt
genetic
inspiration
mick
wan
pack
formel
eagles
sparta
##ncing
bey
##elu
##uts
bridges
melo
cili
numbered
processes
christie
##cini
egypte
##bak
##vette
##vale
attached
##col
interests
stieg
ita
##zym
##rez
heißt
grow
##phone
vigo
##udi
wm
umgebung
##utes
##iven
memories
references
aim
##rave
##cel
##ified
monitor
markets
witte
1930s
practices
aviv
9th
battery
residential
##zine
##ctive
coral
europai
##rog
##spiele
sexo
eltern
uri
estimates
micro
reykjavik
traditions
obe
bog
colonies
##tsch
dichter
memoirs
abbe
illegal
ios
##rise
warsaw
claro
sharon
hayes
##cius
designe
##rri
hoher
##dl
sage
borneo
galt
ferns
##kara
trading
bayerischen
usb
membership
fishing
##atos
leva
nimmt
depot
learn
injured
##naires
wounded
pisa
persia
purposes
technik
affair
eno
venta
##rman
stable
lieder
gall
hul
policies
permis
logic
##lets
##nite
funeral
##yah
learned
responsibility
tier
lagen
pier
bud
camille
##works
##chy
technologie
##toi
##edd
poles
##aq
telephone
##tivi
zugleich
tableau
448
1520
##sler
saisons
observer
##inal
##ntia
bag
component
##ulen
detailed
peer
litt
airbus
##anya
##11
personality
nawet
destination
wants
##enas
fod
##fish
##15
belegte
temperatures
buy
pianist
##tr
jaringan
peoples
tundra
##rali
londen
##lika
##eran
couples
##uc
mapquest
argued
##jahrigen
##lier
siri
testi
schnell
tire
require
toscana
novels
forests
toch
offiziell
feeling
herbst
shopping
stunden
mbi
gaya
brucke
##wd
horst
##jahr
audi
stating
suarez
snel
neill
##oten
decline
##yba
dominant
##folia
colon
indicate
##ander
##pra
372
zeus
concentration
doors
patrol
pose
libera
lod
fighters
##kari
grosso
struggle
favorite
##ition
##asti
advisory
##arne
borders
tipi
copy
notice
##isto
eut
##bri
##nation
##sett
##tage
mongolia
personale
##rds
gustaf
baptist
acre
eua
670
##ating
komme
nixon
wiederum
##cott
requirements
hosts
cheng
corse
960
gefuhrt
instruction
affected
gefunden
gestellt
##dak
##nol
##vata
infrastructure
dragons
stimmen
sms
thor
##iono
interviews
heel
indigenous
cantor
thousands
entlang
palau
rung
einfluss
##wissenschaft
contain
##cts
ferguson
hara
374
deed
bietet
zerstort
burn
1742
conserve
##enja
guitarist
accused
##tando
auftrag
##ngo
therapy
a2
##rup
##tima
extremo
hotels
##ttet
butte
##igan
happened
conclusion
choc
##liches
anger
signs
##tice
cycling
briefly
##stelle
recu
rifle
regent
##linge
keyboard
##ress
##flache
clean
##zta
ido
sudlichen
##ids
bs
doa
##rale
qualifying
kv
restaurants
disciplina
dispose
characteristics
cairo
##cup
ranch
folgten
evan
##vol
moses
herr
milwaukee
penalty
##ichi
programm
driven
##ear
assault
##ezi
nau
friendly
sogenannten
##kende
delivered
##ybe
mechanical
verlauft
collective
vital
animated
anlage
provisional
##ctor
413
##mea
amiga
##mpe
app
madeleine
##oot
replace
marianne
beast
ninja
reas
arno
arrival
##esch
eighth
cove
participate
##tene
##gers
kirby
wesley
cherry
lehrer
framework
advantage
touring
iphone
##iner
englischen
##reten
##bria
sert
##ngton
15th
observatory
riding
eins
##umo
reserves
willis
absolute
comment
owners
domo
##otte
##pla
##bereich
mobil
##lec
##hoff
##adu
##vier
linked
rookie
fiskal
cun
##uza
a4
##mannschaft
colombo
##uring
erfolgt
preparation
##eras
signature
showing
relationships
electronics
phd
##wehr
##cou
switch
##logue
##oge
turm
dimensioni
eg
grid
atomic
##sitz
everyone
papst
##two
bataillon
##gl
##grafie
zwolf
friedhof
represents
##nnen
##tse
disk
saskatchewan
cavalry
criticism
nata
mji
hor
##tande
episcopal
##tei
##nell
valentin
discussion
scholar
##atte
##fly
univers
gaga
##lein
uberwiegend
cak
##osos
999
##cant
verwendung
spa
derriere
operates
##ates
otherwise
survived
##hra
##rja
butterfly
raise
##dah
zusammenarbeit
##nnes
corp
##oat
mv
##emia
extremely
##weisen
column
magnetic
##tigen
##ktion
griffin
verk
jede
variations
##oak
grammar
beverly
gesamten
bits
##ibu
tube
autora
cage
warrior
chap
erwin
arrest
tigers
ubernommen
##hti
marquis
hauptstadt
##lock
##zic
algebra
391
zusammenhang
chim
scientists
ruby
roten
reu
##iah
##tici
kyoto
rektor
maga
external
savage
##kam
##hit
hebrew
ausschließlich
define
##nsen
swimming
violent
##ender
printing
catch
sb
variation
emanuel
##uran
mye
tracy
kew
##cet
vet
astronomy
kand
1492
verfahren
spielzeit
movements
turki
pierce
jag
mono
##rac
vecchio
gemaß
regularly
olsen
##rme
businesses
nana
isabelle
samsung
rade
longa
##lau
##uelle
spectrum
kolo
drummer
maintain
##iona
fein
wwf
codex
##szer
##used
edmond
##ssion
charged
koy
##jun
mainstream
console
##vig
reconstruction
grafen
liquid
##inti
kapitan
464
lifetime
tries
##oop
##gestellt
dramatic
ola
dama
##cku
perkins
##kol
##uv
gibraltar
##md
##uten
##gai
##ady
engel
shock
##ener
exile
heutige
##elet
terminus
##sive
bosch
##uire
elm
inferiore
##lima
dialogue
lava
horses
carnegie
newport
brandon
aka
##menu
forster
concluded
interet
tampa
##40
moments
fired
shift
acquisition
##zare
##oise
bos
##cto
punjab
durham
venture
citizen
visitors
##atie
conception
finnish
somalia
##rike
slot
sari
dub
succession
nagu
##agt
annan
vollstandig
##traße
##test
welcher
farmer
##ack
eile
surprise
1560
mexicano
genres
666
religioso
flotte
sas
algerie
mounted
beirut
dejo
erschienen
8000
warm
##dum
##quista
hauser
holt
1970er
celebration
selten
committed
personi
##rli
olivia
romischen
kennen
##guet
raso
##dler
pla
gangen
chorus
luft
excellence
narrow
sophia
ori
##eim
##nsky
##station
darkness
##wem
##aco
volumen
cult
spoken
barra
knew
kosten
##work
438
##klar
phantom
##elis
##anza
##gul
gps
##tese
gehorten
gemacht
tatigkeit
steps
artillerie
catarina
##sses
merchant
##itti
claus
##kot
zi
chip
chemie
circulation
credited
lausanne
vere
arranged
##ody
zion
aw
tempel
mond
##point
rep
katholische
knights
darstellung
gm
venue
faible
ties
scout
911
plastic
##orre
fiji
producers
dagegen
proteins
menn
1642
guild
reka
damaged
kumar
lonely
##sent
morton
subat
##ntu
##lal
oakland
keller
mica
mumbai
frontier
##mad
coffee
regulation
445
socio
##aniu
preußen
mclaren
supporters
ede
modified
cano
concern
arcade
restes
kern
sussex
turning
medias
##oner
romantic
paulista
closer
wimbledon
terras
scientist
soldat
folgt
##bna
1654
objekt
ue
mater
##shed
##ncu
paru
miklos
dez
jurist
carrying
mena
##inie
landern
guadalupe
bosnien
legte
figuren
gandhi
##rif
technische
gothic
vary
serbian
figur
##bird
martial
conductor
buta
##zim
##ftet
volkswagen
atmosphere
##tam
ahnlich
nouvel
submarine
heimat
mey
probable
##bli
devon
rechte
##imin
crater
shoot
timor
reforme
tobias
##kit
##fod
nora
philosophical
spiders
sheriff
##org
marker
soldati
prepared
ssr
stephanie
hercules
cca
ruben
beau
fail
observation
thin
organisms
hawk
verwaltung
assist
##mur
regard
sample
naj
marcelo
##teil
azur
gleich
benefit
assistent
aufgabe
verließ
ij
tool
##szeit
mafia
accessible
bath
immediate
##enten
##dr
dirk
##down
figs
fleming
juden
matters
##werken
nn
##14
pratt
ato
beendete
1a
##tee
ct
7000
##yas
cache
herren
##smus
valentine
navi
##yja
marius
anar
adapted
##fter
meanwhile
##hai
##maker
##lati
jetzt
demon
entdeckung
clair
spy
##tives
dunn
kuba
marilyn
##sr
yugoslavia
fletcher
marko
merit
suspension
genommen
##gla
daten
recreation
wagen
employment
##ologi
indicated
frequent
depth
meir
jenkins
##dini
oben
griffith
batterie
##ruk
##ect
copper
send
wahrscheinlich
##lton
##real
precision
assessment
##edio
pars
platinum
##aman
##nco
fato
indies
andes
##mester
quentin
##ship
wuchs
##lab
##forma
baldwin
wissenschaften
wert
feed
allgemeine
zoology
pocket
cartoon
##ieve
variables
practical
einfuhrung
##wissenschaften
triangle
##bic
nap
##ctic
##otti
##llon
##view
##grund
##kun
restoration
##plo
praised
##gre
pries
sterling
wooden
##deren
drawing
warfare
515
##rke
ganze
monate
##vn
aime
trevor
##aut
holly
##mh
1980er
##mita
14th
shirley
buddy
filled
constitutional
pati
begun
huge
verkauft
weiss
tribes
worlds
klar
restored
rc
digitale
coleman
secure
feminin
ells
##ritt
oct
##dow
clip
sacramento
erstes
magna
##acht
mammal
diffuse
##sl
hbo
taxi
refuse
accounts
##nana
21st
essay
hadi
##boro
allein
jie
##ily
##rga
diseases
gerade
chihuahua
donau
prayer
##ying
egg
760
rango
##sik
legends
##nku
##rici
millennium
rebre
bun
erwarb
##vera
thinking
großere
##nies
arne
##ndra
paramount
comprehensive
##rige
bekannte
hur
##llos
algeria
scots
##duse
desi
temporary
##cito
##alde
visiting
regelmaßig
binding
wear
##orden
prisoners
mess
brock
grown
requires
lightning
honey
lebten
celebra
##lato
##sian
1621
armi
handen
autumn
teilen
cello
higgins
magazin
kap
goodbye
powered
proteina
grundlage
##gow
##ther
paras
univ
##ians
proposal
##sana
aufstieg
##usen
liter
weltweit
seas
adler
truck
##hten
##uat
##phon
##bara
##nisse
victorian
lodge
##zogen
papier
rough
monet
passant
huang
durchgefuhrt
##hid
shannon
eks
bradford
maggie
gras
bombay
harta
leicester
taxonomy
sylvia
##tao
replacement
tudo
inspector
##ansa
##motor
volleyball
rahman
##ifs
immigration
habitats
fide
kaka
raj
uniforme
sanders
##awa
##icy
bester
hear
rejected
##rona
##hic
gericht
separated
##tian
beatrice
##geber
coverage
guadalajara
vector
automobil
##law
troy
belgien
wirkte
1960er
duck
alder
1250
hooper
##ices
##ulos
1738
eliminated
##ndes
locali
oar
roughly
frage
schwer
duties
##ndia
##gini
##eder
quell
popularity
bosni
holocaust
##lua
##dot
energi
lock
siedlung
reptile
freien
venice
hunting
##dant
francs
champs
organisations
anderer
##how
costume
olympia
##mast
bildung
weiterer
##mone
inscription
preußischen
##chos
hava
hut
seien
##hma
##boru
##dze
berre
charlene
außerhalb
gehen
##erade
intention
##tau
##ridge
guyana
##utor
ricky
##nale
mannschaften
##tures
vore
##baren
byzantine
kalifornien
pilote
rapids
theories
delo
beri
##gil
##nee
forschung
dissertation
##icum
ports
alde
weapon
kleinere
dependent
##risch
augustin
##itar
newspapers
##maz
##wahl
##lman
betrieben
fee
faktor
karate
skip
ster
europaische
tad
interstate
cited
leitete
lebanon
hoffman
bewegung
##page
tucker
##gou
consumer
##cian
item
##hing
seitdem
please
oaxaca
uniform
forming
seng
##rista
arrow
workshop
experts
oppose
philips
accompanied
musico
starke
printed
nordlichen
##llus
konflikt
erat
##iol
toy
tape
##rons
biographie
ownership
##xt
afterwards
##scht
##eller
prevention
##richtung
##gica
##falls
schedule
##tude
stopped
doubles
##nade
plasma
##tup
odd
##ilu
##wes
457
lgbt
##stir
##unde
andras
solche
schweden
vanessa
akademi
sonata
433
tanks
gui
hesse
dennoch
fitzgerald
holder
##nac
galileo
plymouth
hyde
albany
ado
nivell
remote
##jeti
##ingt
hancock
heath
##cock
880
tunisia
##litz
input
##odo
##zea
##mman
ref
##irs
##oth
##rae
##charts
rana
kanak
##omis
traces
experienced
vhs
madchen
athlete
aku
spears
tears
merito
freud
slo
zhou
verliehen
##laria
doom
steiner
##ith
conduct
beginnt
flows
minut
aut
releases
privat
mannheim
rhode
retained
##xar
monastery
navigation
vaclav
depending
pk
alpine
layer
veritable
comparative
##garden
operational
##uus
diplome
##versa
##uria
##gruppen
svi
zweiter
westlichen
##ndre
##desi
natalie
##america
ratings
boga
eros
##ktur
##cro
spraw
assumed
##usement
spiegel
prototype
clarence
##vest
involving
separation
autonome
##uche
qualification
##gb
melody
soz
##obe
patterns
##uale
kol
torpedo
wire
randall
1609
##teria
##kad
##ikt
significantly
suggests
khang
mots
samoa
raphael
1990er
erde
xml
davidson
hate
phe
##gegeben
swan
##inan
informe
##lid
cpu
predator
calendar
##blatt
tomb
breed
jahrlich
##sty
##ntar
supports
780
advertising
zeigen
##itan
trials
##orte
karol
moves
##smann
##dada
##entu
##eros
moglichkeit
##toma
beth
monday
##web
admitted
cork
guarda
influential
noah
##oom
talking
concepts
offering
continuing
##laste
##rp
labi
labrador
sitten
##kula
cruise
juri
casar
##bru
ranger
athletes
bringing
maxime
##ngs
jesu
##ocht
##isierung
doesn
fußballspieler
bab
italienischen
kami
##ath
reel
lords
mura
##turm
botswana
sor
extrem
afro
sheet
##ulation
1450
##siden
##uun
##idd
##enda
favorable
frase
##tead
hammond
##ßt
wochen
principle
großbritannien
overseas
eugenio
kader
##reta
survival
##rone
##tora
##uko
weitgehend
gesetz
christi
telescope
lukas
##neb
covering
ensure
##tlen
interested
##fasst
##mbe
gemeinsame
seth
##ight
kalba
controversy
roller
humboldt
amazing
##egi
##oll
abschnitt
##mpi
##sol
shane
accept
oper
##tya
##anes
##omo
##nera
inden
individu
termini
##serie
kt
neck
sarawak
angaben
blau
crane
bars
silvia
penal
nigel
##cev
judy
blocks
generos
stadte
quellen
setzt
municipalities
warning
##nter
inseln
representante
##atge
pitch
eat
sona
##ital
##tch
##lani
classified
joc
latinos
bid
##mee
apache
##gawa
veteran
tha
##genes
vorhanden
##lete
localiza
banner
laufe
lc
462
pers
##ebe
gaza
bucher
gols
1655
##iges
audiences
nationalmannschaft
poche
dawson
wk
boundaries
##ional
nadu
##egu
##xy
##cino
##esu
##obu
writings
##rva
colos
fuhrung
longest
produziert
consulta
aluminium
fever
bekam
##sminister
##ussa
rett
concerns
##gebaude
aston
##stoff
export
montage
bekannten
flood
##lange
trailer
jonge
##atura
##oty
dino
clients
##tionen
iranian
studenten
ts
##nado
##zten
##tve
belief
prairie
empty
1731
##atori
##lder
bulgarian
raad
ie
leigh
tarn
1643
unity
##dore
##tris
knut
hub
nissan
nostra
bluff
##ache
waffen
buen
interaction
509
cn
breite
duet
inspire
punct
kaki
examen
joj
##arn
kramer
atti
inches
##ook
##anin
##lkan
clermont
emerson
trap
presenter
##ood
chute
destiny
##tler
##sort
##toon
quarti
biodiversity
belfast
ej
##lass
miracle
inaugural
##usion
gustave
##sland
##vai
minuti
eclipse
habitual
ariel
suzanne
playa
hommage
##cendo
##mum
cez
dini
americas
visite
kn
equipped
##lite
gould
gaur
sprachen
##hner
rectangular
consider
buddhist
dynamics
##ogie
##hire
##cial
brett
##graphie
protestant
voiced
namibia
##weis
##otto
bert
##mara
calvin
yearbook
##fur
medica
bismarck
crowd
cheval
##kut
##sina
meat
bildete
##mut
sergei
##rito
##rock
suche
jacobs
cedar
492
##nike
guilty
stick
neither
##rtu
##rle
sogenannte
##pena
rein
distinction
sudwesten
fn
##oun
##lex
hybrid
##elles
lens
vette
##stri
jar
##wl
##cut
##gator
moskau
bes
cannon
1664
sista
decat
##orde
##nista
##lden
minsk
minority
##asse
##kala
latest
sunshine
duran
delu
valles
avia
fatal
gitt
zambia
celebrated
##imit
ninth
doctrine
crosby
aug
bye
refuge
attila
horizontal
losses
newfoundland
siemens
##imes
##dun
##rok
compare
##gewicht
explained
startete
analisi
refer
dono
consequences
reagan
lindsay
1623
1656
vertreten
##dest
lauren
entsprechend
##leitung
##edt
fam
##rst
umbes
##hnen
##onse
##wiesen
gegeben
costumes
olaf
sela
moll
##rase
##rasi
consequence
disaster
imperi
ega
##lyn
poll
##ardo
##logical
##oux
rounds
dm
fruits
technischen
großeren
lov
pest
##izing
compact
starten
sigma
##rigen
eco
agencies
cartes
stayed
autonomous
##ouse
geben
##usz
formally
##ability
fonda
conan
scholarship
rd
unge
brun
##kir
filmed
##oci
##dica
tourist
##vid
amerikani
herri
nordosten
hank
##chis
quen
christianity
entering
##part
sanskrit
##vei
hue
medals
anteil
corruption
influences
emissions
##klasse
##80
schriften
kana
habita
wes
##ild
langd
abuse
tiere
##tista
auga
treated
rapide
coca
fellowship
rabbi
ministers
bello
dienen
##nh
throne
ausstellung
niels
##ify
##mare
##fluss
##eniu
##nimo
informations
occasionally
piero
kandidat
eni
1111
##ugen
hec
kurie
rele
deer
##setzung
##elig
puy
##aster
allgemeinen
##idia
horizon
qualitat
##siert
jeweiligen
migration
congregation
##legung
##key
vormen
byron
seek
503
minst
timber
##iss
##lten
generals
regulations
##lent
watts
##voi
louvre
publikum
##vang
molly
archiv
defeating
##hnte
prado
whereas
##eas
ausgetragen
mccarthy
bayer
kurze
vessel
##ragen
tate
rebels
verfugt
kosmos
##evic
##bun
##uras
adding
johannesburg
wait
##resi
meetings
talks
oval
gu
##jul
mitt
##rut
fifty
536
##vini
horen
wanna
##sweise
kazakhstan
##staat
##zicht
außer
##sport
##cole
adolfo
##haft
somewhat
##pha
jacqueline
immigrants
soo
krieges
module
sequel
surrey
jaya
##esche
amazonas
monk
##tely
commentary
criticized
##lei
##uera
##tain
##erta
555
##eiz
grades
sergeant
##landi
730
##spel
ena
facing
gir
##iene
##ched
##edes
rochester
spania
477
##pati
1651
regimen
lectures
##meer
twilight
##stwa
##zili
unterstutzt
preserved
retail
sodass
guides
eis
##rost
temporal
heure
raoul
handed
imperium
##sart
unusual
rings
boats
##hea
##gericht
avis
vinci
narrative
eingestellt
##lose
bosque
##baum
##para
deutschlands
oberliga
civic
##bran
facil
vend
freund
tee
visu
limburg
##pok
dust
portraits
radiation
leer
soap
##chard
gigante
sava
##reich
clayton
liberta
struck
##uw
amongst
004
##tez
##pare
rocha
tables
gepragt
bb
rovers
alas
##school
monkey
leit
archaeology
motiv
lief
##tales
##mano
fossil
##nehmen
opfer
carson
##ringer
farmers
span
##pense
##pris
conferences
myers
##theater
armor
##bbe
catalina
##oza
worm
##fassung
rut
##100
vinyl
generations
##yli
exact
moja
lowe
travis
##ox
remake
keeping
neumann
pinta
##wesen
hitchcock
tou
reveals
linken
intersection
rated
kulture
achieve
##uba
precise
474
gelande
zuerst
##njo
##listen
##dz
##volle
reden
##laren
boyle
posti
electricity
handbuch
correspond
graphics
553
magazines
##atta
diary
custom
toren
##orta
voting
##ntis
##aly
impose
##kerk
forty
##gente
##markt
polizei
surviving
##beni
##dete
rosenberg
choose
ticket
weltmeisterschaften
futures
bund
pies
##eso
computing
doyle
relevant
allison
##mers
hil
fruheren
##igte
wol
entspricht
618
aldo
compounds
pokal
##sara
analog
hulk
minneapolis
mehrfach
franzosischer
histories
deck
habsburg
muslims
##fde
bloc
##ope
unmittelbar
##put
helping
commun
jl
skala
##smu
##spielen
quart
preliminary
recovery
codice
standen
guards
##wort
##nere
##erat
rudolph
498
##kl
nottingham
tribal
##holt
nationalen
robbie
##naden
influenza
##male
jedes
propos
legs
sura
weist
hundreds
roue
##anen
##andra
doris
harmony
csi
echte
consulte
##mb
##inia
##nati
##agu
taipei
##handel
candy
adobe
abroad
##dien
##riti
copenhagen
##ept
##53
armando
shadows
nico
plains
seymour
zeppelin
plato
##tile
##ilung
sponsored
cyrus
##ingan
##dose
benson
##chem
kreuz
##mmen
mains
bedeutet
jolla
fed
##iale
confusion
functional
berat
appearing
domini
acacia
##tats
##nul
administrator
##tellung
periods
##garten
arctic
##vision
##lian
waves
##fas
penny
untersuchungen
##zentrum
dynamic
sherlock
##reiben
##hor
beda
excellent
mansion
aquila
esther
##etten
nikola
hinzu
##teli
stari
marka
interim
managing
##keiten
ags
ghar
eingefuhrt
bow
nia
##kere
qing
gute
francesca
##zeichen
channels
bold
bjorn
plat
##festival
##ffa
##gro
historiker
verir
carr
deutsches
genannten
cream
fotograf
weltkriegs
schauspielerin
##dici
samurai
##mne
vessels
##enin
##rren
mixing
editore
nazis
tn
mona
precedent
syst
##lap
zahlt
##sili
strongly
brenda
eleanor
axis
##oin
temperatur
dominante
answer
anyone
##fried
assume
halten
nikolaus
dear
mita
##verwaltung
redes
sait
oberen
brighton
guzman
##zien
sinclair
sieht
##sei
equation
democrat
##srat
orientalis
##18
##krieg
phillip
berufen
controversial
descendants
thames
forderung
armees
schwester
centimeter
vergleich
worst
##tila
apparently
krishna
elliot
##vora
temples
gemeng
manning
bonnie
##prasident
vente
dros
photographs
kk
shares
##kek
siegfried
verlassen
##rime
1679
nordwesten
minimo
tudor
comparison
concerning
magister
##otes
distant
increasingly
appointment
##cd
##alar
benefits
##zyc
taba
outdoor
##fest
##mania
fotografie
implementation
neid
489
menu
prinz
syrian
##dol
antarktis
##bana
ergebnis
nektar
orchester
rupert
britische
capilla
##zai
stoff
##deo
hingegen
morgen
picasso
elektron
##toa
krol
##uku
##ikos
rote
rotation
theology
strategie
beschrieben
rolls
pech
prepare
appelle
kl
arbeitet
##nken
##betrieb
brod
kanda
aziz
lil
caps
reef
cites
edvard
promise
727
waste
##iks
rak
prussia
reuters
sponsor
##atas
tia
466
nomen
occasions
bomber
dyma
singular
bunga
libya
religions
##yti
push
##rela
1920s
980
##vt
860
cit
##klu
towers
marvin
##rollen
seeking
##gr
sz
calor
button
annen
verbreitet
##uwen
flute
defend
sagt
nominiert
##liti
mechanism
vei
3500
##licht
knob
##zke
salomon
makeup
##zoa
dili
bundesstaat
##orf
##onic
gana
##tium
gange
##ahl
##abad
professionals
auge
morro
vapor
phrase
##itaria
genau
##oles
##kg
##brook
australis
##cide
sonny
carro
riccardo
scores
kepler
gespielt
guitars
surrounded
##ggere
augmentation
exists
auschwitz
##veda
python
sunset
##ml
##rop
##hul
ika
sudosten
nate
##oft
777
prediction
barre
##tria
##hla
##stil
m2
northwestern
##yia
##edia
##osis
ebene
##kundige
kuwait
bells
borg
##fere
percentage
reactions
serena
judischen
messe
wendy
nil
##pada
##usan
##hoe
soto
wissenschaftliche
tornado
lex
friendship
##kter
verlauf
clifford
mentor
witch
annually
electron
concerned
servant
##dens
mp3
##fc
nai
gebildet
##imas
monarchy
descent
875
amir
loves
linz
drivers
poete
hierbei
fragments
starr
##trom
aur
##hardt
hearing
historically
##sville
seeing
mackenzie
delivery
garten
ordinary
espirito
eddy
##shme
moderni
##unes
##amine
bend
##tanden
pra
declined
##lax
huber
tend
##holz
basque
structural
palo
athen
shawn
boyd
plural
##flora
doktora
kitchen
pus
atari
opportunities
ivo
knox
dot
1684
hooker
gewinnen
hochsten
##nummer
schulen
mich
##iate
hastings
datt
##sund
##wirtschaft
grimm
##rika
cluster
dargestellt
understand
##ably
brady
gaulle
reprint
rast
tracta
529
goa
lublin
uttar
bassist
mask
##burger
##ool
690
##ensi
##fil
republiken
endete
freie
computers
gleichnamigen
##esto
attitude
pilots
ret
armen
parsons
delegation
osterreichische
pino
zug
pura
##nene
reno
boje
hence
normally
monsters
civilization
competitive
liberale
sive
abstract
pressi
##ager
##gence
##chie
def
tapi
2d
##dok
harr
replacing
##cih
##hood
pike
veri
strom
wissenschaft
psychologie
##meno
##eek
##chas
aquatic
suffering
array
##wind
ludvig
highland
peaked
olim
##nah
southampton
bringen
pauline
zensus
##reti
wen
elsa
antarctica
mercy
christus
linne
##tut
besondere
taka
##tino
##ieg
providence
editie
animali
genie
##imu
saya
##arta
##sque
##char
goodman
##jor
barker
signing
##rella
clyde
sohne
orten
fortress
howe
poker
##sni
amar
##core
struktura
stevenson
mittels
##raj
elimination
specimens
fos
mozambique
studying
##lain
tragen
naked
heather
##iele
##etre
maker
##mens
battles
##maga
##vern
weißen
ergebnisse
muga
gale
kz
quarterly
##dono
kone
581
wolff
linguistica
lok
##bow
proof
##wertung
connect
wist
aufgaben
sowjetunion
##fers
missione
##katu
bestimmt
##gao
chocolate
expo
##dite
fuhrten
##ils
serbe
##bound
executed
leistung
dokument
erhalt
filed
maha
##gic
##mona
existed
spike
nile
##emente
##ever
flies
amendment
involvement
useful
##voll
vik
vem
##ckte
deo
barrage
##sies
invisible
vitamin
##oses
##bold
##vania
hervor
continuous
casting
intense
muscle
waterloo
##gah
vermeld
chandler
geneva
systemes
##pedia
fold
meu
roja
tris
miz
##aks
wichtigsten
##liert
sequences
judges
trug
##uas
archivau
oka
pis
##lassen
objectif
b1
##dito
mittel
jill
torn
slaves
neutral
##rgo
mittlerweile
rosen
lovers
mensch
bean
##opsis
##alu
##press
deaths
usti
greenwich
fuller
rec
##clave
talla
xan
bind
jove
##lge
##menes
vereins
##tita
taste
kamer
settlements
##inge
enthalten
yuri
celebrity
##mik
mechanics
##lott
dying
##lico
sodan
##rupt
emir
##logischen
denied
##bien
sousa
laval
reiste
wenigen
##lici
##ryk
insight
##reis
##rsa
feminine
tunis
rankings
trick
experiments
clemens
hampton
##ror
##visi
smile
##richt
flughafen
approval
lebens
##inda
runners
##nante
ipa
##zze
fas
unites
tangan
civilian
landwirtschaft
quartiere
##wards
bock
edison
##elik
informationen
##hod
asien
##rch
endemic
strings
##mund
hergestellt
##gade
bf
usual
##dele
peca
##worfen
toten
##hielt
##rischen
##dene
sieger
moh
abitur
projecte
##sf
##eche
researchers
dynamo
##atti
##iato
fahrzeuge
regis
departure
barton
juarez
##sien
respective
brooke
ige
gesu
sentence
cobra
successive
##mates
##etik
brezel
##bier
anima
aia
hochste
607
##kab
burkina
baroque
effectively
notion
kerry
##gezogen
##chine
##rante
certified
matthews
everybody
dieta
norbert
repertoire
##dka
##sby
##uman
preserve
reception
##mand
riba
zhu
##digt
##gehen
taller
indonesian
513
pax
locomotives
activist
pga
##evi
competing
belo
wirtschaft
##lok
drift
divorce
##sic
veterans
welfare
##eite
conti
##slo
##pr
finger
konden
##ikin
kindern
##anna
activa
beaver
##ksa
vaters
widespread
##evo
##kunst
##afrika
770
pension
cope
peking
großes
siberia
themen
klavier
##gende
nahmen
portsmouth
hahn
similarly
corresponde
##nage
advice
##rennen
##jad
bacon
##mun
intellectual
gedichte
##eak
##nesia
##nena
erweitert
##stin
faso
problemen
##emi
fotos
##hina
##rge
##vite
##mation
tempos
ui
zeiten
versucht
soe
riders
##aging
##niti
##nno
psychological
599
d2
ehefrau
##fice
##hau
olive
studenti
fabian
##cent
druck
##pper
hawkins
##gnes
cats
##iru
##inka
ortschaft
volunteer
valerie
aeronautical
##eku
vgl
nehmen
sailor
##tron
graphic
vegetation
##oud
spaces
##mpa
lg
##mest
barco
mos
survive
##ghi
alphabet
##ieres
fruhjahr
gola
governments
sender
niederlage
chronicles
winds
##nano
marti
seres
##rib
##kee
##uali
beitrag
psi
preservation
##isert
brave
perspectives
##gara
##lassung
##cephalus
titanic
royce
005
gwo
##emann
knows
nah
nostri
rudy
customers
organisme
peaks
reformation
reggio
treffen
branche
boxing
dad
##leiter
funded
neville
portrayed
bleibt
##nity
garage
##haz
oort
jets
posten
##imus
youngest
##uks
patterson
##mouth
pavia
citroen
##holl
smoke
specialist
daran
titus
mic
##tala
##kraft
samantha
rapidly
ovom
##bliche
mittelalter
chefe
##isha
atlantis
sheep
##gni
##wne
electronica
##fels
atat
crow
impacto
rent
architects
weltkrieges
##fit
##elin
correct
coda
rage
##82
teddy
ruckkehr
##mant
apartment
##ingi
lester
orion
##anto
kirchen
biegu
ubersetzung
##uve
schuster
##aton
##nist
treasure
disorder
grandfather
voyager
elephant
##love
##cats
aufgelost
transports
erzbischof
bahnstrecke
brandt
gregor
612
##titi
##zier
kunder
##mane
##eal
##finder
##etos
##enstein
planetary
1564
taxes
zentimeter
damon
associates
sidi
suspended
##stos
weiteres
##omes
presley
synonym
##beiten
dancer
prasidenten
taxon
intermediate
##tores
##tinis
wider
duel
machos
1950er
##ropa
terminu
##legen
proprie
paint
##dab
options
##asu
ruling
invention
stift
apply
jurisdiction
spatial
assure
##ohe
prosa
2400
architekten
deb
##resa
benedict
##arni
##ffy
##arti
dodge
##lied
assets
fotografi
##sins
lando
cattle
orientation
laurel
jez
copie
umbenannt
joanna
##iegen
eigentlich
grenzen
##gleich
saved
##ghter
ard
##iky
##pm
sektor
injuries
motto
##merika
lockheed
##pool
politici
reverse
erscheint
curriculum
portable
aufbau
starken
##vag
##ilt
erkennen
mack
##ichen
teach
cds
modellen
praxis
##gare
greatly
##wili
garrett
soa
707
travels
##dres
##iant
sacro
beton
##pien
graduating
servi
agenda
##porte
unan
rota
challenges
medecin
romisch
##nove
dora
fokus
##saka
creat
fala
stereo
##grenze
altare
situ
##most
##urre
##iver
autorita
britney
marty
exposure
##pera
##forme
##say
plates
ura
genome
##fr
payne
metallica
tasmania
lim
##loge
tatort
holz
ment
exil
##llis
courage
falle
brigadier
roc
herz
##rce
dd
haya
aman
exercise
unsur
##edy
loved
##weight
trach
malawi
##nisch
1453
fernsehen
##ozo
1584
visi
indios
extent
jaguar
requiem
##cchio
saunders
##chan
##nete
##ithe
besser
annotated
degre
medikal
592
supplies
curta
dress
gabe
##uert
crustaceans
stranger
acids
539
coins
##ordnung
novak
##osu
##shan
gradually
##oce
kamerun
copyright
planck
lasted
tante
worship
iga
##fully
nek
dracula
georgian
##sene
angeboten
geschlossen
erklart
##mpia
##pak
gdp
##istan
##orium
sims
teils
folklore
##xon
##dic
stroke
##tent
intra
ortes
innocent
erg
kari
##elige
##ication
##fahrer
generated
mathieu
destroy
sanat
##kling
##vici
banking
##dai
appropriate
ens
##esh
marge
cornwall
keto
manier
maxi
cgi
fantastic
silber
##chet
ethics
##lines
indeed
significance
faust
##link
businessman
spoke
offs
kommission
atoma
fakultat
faber
##lsk
evangelischen
doma
fowler
##edal
##inne
katie
##zahl
traditionally
##rieb
prim
arrangements
##60
##retta
dahin
chavez
earthquake
meri
ostlichen
##resso
##world
lift
load
monumental
##pose
finances
membrana
bra
handling
##swahl
clare
##jali
##werkt
versuchte
widow
##alter
beschaftigt
##schiff
volker
##rett
##ank
reinhold
##ajo
##tiche
rover
ethiopia
ranks
sanctuary
agence
topics
polnischen
reporting
##rove
writes
siet
mud
dra
filmin
##sou
victories
bebe
##china
alumni
clave
##sli
giles
##fuhrt
##chs
studier
diabetes
667
amp
anatomy
lone
##gine
##istik
diplomatic
hare
##uchi
sn
libanon
satelite
sieges
junioren
##stal
vierten
turnier
optical
vivre
attracted
##ateur
acted
osman
substantial
gravity
##ppi
##bera
verantwortlich
implica
##bunden
##ptar
aberdeen
tritt
##nede
##onte
aree
##omas
thanks
gao
##atur
witness
c3
locals
surveillance
brass
goran
bibliothek
relatives
restauration
##kart
croatian
##versammlung
unterhalb
hussein
licensed
##phe
##ail
##nima
elt
monti
marry
exposed
topic
##last
archer
##kini
shipping
##oning
partly
##sgemeinschaft
debt
oi
##dell
raising
tt
societies
platon
schwartz
beetle
##jut
adel
koniglichen
christians
abt
enta
##diti
teilnahme
lobo
indicates
##mol
coco
##eye
##tzung
demolished
##64
nyt
##sicht
##mons
package
artis
609
finaliste
winnipeg
reg
amos
554
buc
##avia
blast
schiffe
mortal
ganzen
iro
##vem
dominated
gauge
islamabad
wahlen
erhielten
##stische
##bod
##ikat
einheit
ib
##cover
invite
drag
##aram
bride
infection
##cious
930
vento
pd
##gnan
expose
halo
politike
honors
willow
madagaskar
##rima
##schnitt
spending
yin
modernen
##jot
advances
##redo
##vate
booth
##hna
donated
radios
fifteen
watt
yao
##ass
##race
##vd
##lue
assisted
hir
##hio
woo
aktive
##pine
null
williamson
ode
pac
reales
liechtenstein
wealth
insula
irwin
twins
inferno
dena
orte
apparent
bagdad
##mac
km2
##sels
horizonte
lune
enemies
seeds
##europa
dani
sharing
##wich
##gefuhrt
bestimmten
##yme
##boy
volvo
smooth
fao
##mentu
##voz
##pana
gelegenen
remove
kart
tud
##urat
wettbewerb
wirkung
morti
hac
cot
derzeit
triumph
finalist
volunteers
alteste
sutherland
688
flags
##ems
##jr
modernes
singers
spectacle
unele
pfarrer
nordic
##mung
##ulta
##rish
planen
nominations
lesser
thereafter
##erti
tobago
##arian
##won
##alia
##schluss
juna
##ester
europas
medizin
spitze
identify
devils
produces
alison
gs
guinness
##anlage
poore
congressional
erected
##vey
halifax
platforms
##ulas
giac
##ozi
halve
poole
fairy
garland
##omen
repair
viewers
potente
avignon
quiet
##rgen
##quist
gur
hua
autors
bla
kongress
relegated
##ntas
##fora
wyd
tari
effekt
expand
beam
astronomie
lorenz
columna
##essen
##ising
##wege
##metri
hiri
coat
confronti
sunda
##sters
fis
akt
##aken
emery
craft
aufnahme
##hol
myth
entweder
##iane
cunningham
##arak
laboratorium
##oden
##mental
##acy
chicken
constituent
pago
konigs
musikk
559
##card
##iosa
##fare
saul
##sticke
##arin
membrane
posted
##bane
priester
chiefs
mighty
dion
ortega
attributed
eggs
traveled
melanie
looks
margin
dominic
##klas
##ulated
##lling
saddle
reside
eingerichtet
##eding
voters
yoga
clearly
polu
drame
zoe
closing
##ogical
dudley
##pole
##verket
##aye
kolonie
favore
rwanda
##tlich
kola
divina
antonius
nevertheless
wireless
##hong
##eiden
##izi
compositions
##rala
biennale
##atet
##inar
worker
starter
instal
amber
##celli
attraction
##rnes
vivian
##satz
##politik
zeigte
##rement
##pito
1561
##hmen
##hak
mastering
emotional
pseudo
permit
##plus
##derung
sight
##dian
aero
prisoner
##ffin
##oya
##ways
##rvi
ecc
viewed
##satt
encouraged
##tono
##lost
teenage
settlers
##mies
ivana
##nche
dorsal
permission
intro
signals
##vsky
##lmi
##lades
##riga
intent
##lisi
kale
breit
##hagen
embassy
patienten
##regierung
kala
701
bt
675
##mble
pamela
ling
##hut
##dje
yourself
##erden
behalf
vorher
006
bitter
filming
quai
##chn
futura
##city
maastricht
pitt
tagen
##okon
##ull
nose
historisch
fragen
durfte
chaplin
fina
##qu
gezeigt
##leen
##wed
ubersetzt
##ngu
##eil
lisbon
bergman
##nod
defending
parasit
pani
void
shepherd
commanded
##open
##mte
shuttle
##ruck
##acia
ferner
daisy
##olle
certificate
evelyn
##roi
##bik
shut
xxx
mota
hermes
##loch
anal
wonderful
##teten
borde
messa
##jekt
debat
improvement
generalmajor
manifesto
##stuck
##visa
synthesis
historians
proton
resp
##ppet
##cani
##eler
mister
bloom
##standen
nobody
autoren
##nama
##rolle
shelley
bernardino
physik
hogar
satan
verze
##worm
locally
##brane
1574
stakes
kurios
##lac
karte
instituts
tode
xin
##bezirk
lehre
karolina
##getragen
##lace
eternal
spanischen
objective
filmer
emerged
##komen
stets
verte
esperanto
##cap
##ibi
produkt
ballad
iss
##wien
##ften
890
pairs
materiel
automatisch
gehalten
korper
##firma
verra
##vra
##reg
##eia
##turi
##forschung
cuisine
aldri
oxygen
prac
holm
##ationen
invites
hamm
uv
veroffentlichung
nc
examination
organisationen
##resse
##skab
boxer
bulls
sitting
confine
infinite
940
salmon
##vasi
##ching
##rama
##telle
gus
valuable
##elas
##gler
amadeus
intera
##vich
##kopf
benar
besaß
petri
fluid
##aming
##nzen
##kok
doctors
fuji
erika
##rdu
sep
##zul
phys
elsewhere
schip
gero
fenster
##obi
beats
##coming
##mmung
situations
sentenced
##bita
theft
comments
tatsachlich
##formen
##øre
##mala
toll
linguistics
journalism
##inska
hogan
ursprung
rebuilt
tomasz
##chio
##quita
dessous
southeastern
frankie
##tly
enforcement
fernsehfilm
tanda
wheels
##19
freestyle
speakers
judo
##diction
steen
sauf
##trager
zweimal
##iken
flights
##ecer
##bler
##uck
creator
cutting
##organisation
##nian
##ziv
##etek
##mida
akademik
kashmir
##arda
daddy
werde
contested
residing
##obil
drink
1543
ayn
physician
##riva
elton
##db
obu
##cier
qualifie
buses
fictional
##onn
##post
charleston
##zeitig
geschrieben
##ault
michal
##pop
plek
kruger
taca
##hane
oberst
biologie
belang
##dala
##dda
deborah
lye
victim
bestimmte
salazar
##bergen
##tiven
ames
belegt
##edu
rae
airline
wodurch
minimal
##bai
verb
picked
possibility
belonging
teste
plak
##schi
versuch
gutenberg
##ements
##cati
liang
andro
aude
787
##wei
##itati
provoca
profession
nebeln
approaches
coaching
##dern
##fors
##pani
roque
traded
berne
unterschiedlichen
velvet
##urde
hanoi
##pro
bericht
##veri
##sul
##eep
riche
wissenschaftlichen
duze
truman
liberia
rm
##tinent
cane
##rdnung
##oman
pune
stationen
##tela
mihaly
offentliche
##dria
landmark
##rable
##blick
sever
bowling
wrestler
daraus
##iman
##loa
pound
##tral
seca
alteren
##kens
bacteria
hafen
##ously
##geld
talle
franzosisch
weak
##sende
##ebra
connections
brent
abi
doo
##leges
##mmat
##pino
mba
ines
afternoon
##istent
##nque
##sache
yas
princes
714
latitude
boten
##olia
##itra
sturm
gareth
luck
##viti
##reu
brugge
##ngue
belas
endangered
lk
quer
tactical
norris
##cale
##rean
cowboy
merger
wissen
577
##hlt
terrible
einfach
##team
elegans
berge
conventional
unang
establishing
endte
blow
moro
oldenburg
import
lessons
##nali
flames
urdu
employee
awareness
jedem
reilly
node
gul
satte
##gnet
vv
astro
##pielen
##ader
increases
politisch
##nho
grenzt
irregular
grab
##blad
handle
isolated
procedures
cicero
##vens
##udu
erin
##gab
barber
claiming
gluck
recipient
tumor
##gott
##ilia
##tjes
probe
##sens
##mete
haas
meine
inneren
scandal
nieder
##tteli
pepper
##hauses
##hala
gre
lege
##inna
##olin
anfangs
ria
georgetown
compound
antique
buda
##zeugen
etage
vocalist
conversation
babylon
##bud
forts
tenta
oss
##haltung
kathleen
enjoyed
##etzen
##hese
##schlag
survivor
tivo
keen
chefs
##lien
georgie
##apa
##lander
clive
##hua
muse
adoption
##geri
rabbit
unteren
holders
icon
jae
vertrat
##zsa
##tze
##neo
kunste
rares
dewa
geschaffen
##sgericht
##lars
##hauser
##bilitat
##dies
databases
ert
besides
amer
pob
##ulan
##odon
##gert
##dden
##sere
instant
liszt
prices
##oste
cores
szene
##uter
##kuste
brillante
soba
kommando
nachste
##fabrik
oriented
##bong
pasta
##kreuz
violet
##enz
##lili
nutzung
##skas
communal
zunehmend
##udes
##logist
##iara
configuration
moglicherweise
guten
skull
##nahmen
griechischen
szo
##walt
##pele
feld
angelegt
##inet
##rted
nwa
dickinson
kills
besitzen
conscience
m1
sacrifice
##lya
chino
##ssant
swamp
characterized
bullet
pipe
oracle
sato
hilton
styl
dab
schumann
aimed
krone
bale
sten
quadro
missed
clothing
##cela
aristoteles
##shof
ubertragen
##lif
contem
neptune
displayed
##amat
caja
ame
##cilla
pseudonym
##raga
biographical
leistungen
randolph
remy
seem
blieben
##wies
advocate
okinawa
auflosung
vierge
##pore
gop
##shu
##isiert
##rew
reinu
c4
mesos
norm
pauli
accurate
thesis
##ressa
mongol
zheng
dannet
standort
adresse
kitty
lamb
##chluss
adi
matin
##nert
##losen
sha
##kles
samples
##zani
departments
overview
dialect
dwight
depend
gem
japanischen
grosse
##rth
tune
theoretical
##mura
wearing
maurizio
##pice
##ior
mosque
worcester
##pere
asks
coin
slim
diens
##kul
##rach
tc
qualifikation
breaks
##evan
vollig
##oed
abandon
imagine
bleiben
darren
honolulu
##hera
##eco
##face
gebiete
hurt
##oze
##auer
##pura
gewicht
##thal
mechanisms
guter
abe
aba
verkocht
surrender
##sches
calcutta
##falle
##lates
##lean
beziehungen
##ioso
622
industrielle
monarchie
##heen
##rey
ranges
palestinian
crossed
krav
tul
promoting
geb
##ukt
teilnehmer
auswahl
faster
videoclip
targets
illness
ner
genocide
olof
plc
partially
##anten
##ziehen
##halen
tesla
bogen
##dida
##ezen
##schutz
##feri
schubert
##dalen
##plex
##shaw
flux
pedagog
##vind
##lasi
arn
##imet
eos
##ldu
soda
opponent
giulia
blancs
carrie
##rechte
strategies
politischer
##dog
connecting
substance
mette
lowest
presidents
arias
intero
sabor
riverside
##onde
##xis
iceland
publicly
wyatt
##iologie
sixteen
arret
##xan
##rec
errichtete
##ientes
schrift
##ecie
fax
architektur
tenure
suburb
consistent
valde
valid
##tren
thick
subsidiary
##bten
deployed
##tili
ventura
##welt
##tah
##gled
denise
ryu
##ols
tiers
schwarze
gsm
perse
##liere
##ween
dinner
##bras
##chrift
moran
##nants
myself
nors
chrysler
##itzen
motoren
##jalla
##dach
electro
rust
rodney
valve
controls
leroy
poli
attending
abbott
messages
##aret
nichols
gelten
loving
ranging
##ldo
demonstration
dig
accent
##itel
konigin
verlegt
metropole
albanian
##cope
hyderabad
meni
cantu
##idan
amd
##axe
customs
dns
seminar
barney
sheng
mainland
alpen
creature
seminary
parallele
cylinder
modes
hic
minus
##fullt
gelegentlich
##kumu
sexy
##zs
anwendung
##ocia
##wings
##ddin
komplett
##trainer
bombe
mello
##ags
##nding
##yst
grafschaft
meur
inst
mutual
episoden
ves
typen
##gten
breeding
##pul
economist
emerging
furthermore
tenth
##etet
##gav
forth
nahezu
hum
rau
tottenham
##hru
bloody
##ddi
substitute
nul
telemark
danzig
benutzt
clerk
##bilis
yun
886
joins
involves
reptiles
clash
jager
##cam
bent
lego
##zela
zar
##asia
clen
michelangelo
fastest
einzelne
##mada
janis
offentlichkeit
nascar
desmond
##32
straßen
##yc
cromwell
isti
##evel
haz
dijon
eritrea
##gehend
ls
remo
bernstein
hel
curva
pursuit
trends
##zite
##iton
##eration
spille
##vertrag
primitive
herausgeber
mittleren
shen
##kret
assistente
englische
montanas
enten
grain
nurse
chennai
633
##aku
busch
geplant
oasis
gerd
locke
##eilt
##tena
##rud
##prache
sox
pepe
coaches
feste
decides
belong
durchmesser
kalan
##cting
herausgegeben
##hnt
ando
eur
##iensis
panther
sla
##vogel
sketch
sna
##nungen
##meisterschaft
zimmer
medley
dicht
tera
nici
landschaft
genius
##rere
##pah
dash
intelligent
##lga
sexto
territoriale
dialog
latvia
relocated
theological
ding
computational
##hini
readers
hierarchy
stellung
dexter
pbs
ambient
ordnung
##stina
##uction
##kine
merrill
pleasant
fließt
##anga
groove
maximale
turkei
collapse
##weiler
##onin
salut
implemented
antike
assassinat
introduce
##mli
fuhrer
##tros
detection
##aring
elus
kerr
burundi
curve
familiares
ruch
##bogen
umgeben
##version
bengali
nairobi
evolutionary
merlin
hubble
recovered
shine
accesso
stille
##torium
##ggo
disorders
##esia
unir
594
dimensional
donovan
fitted
dolce
casablanca
offizielle
##perk
enkelt
util
afrikaans
##quis
zon
chamberlain
zombie
democrats
##bul
##inischen
fitness
suitable
dahl
##lante
directions
registration
walton
##ficient
##eien
##graph
surfaces
voll
interactions
##vity
impression
##fix
cb
elektronik
sufficient
##fft
yukon
ongoing
freiheit
signore
metall
##pres
savann
##erg
inclusion
aufgestellt
alkohol
farming
campaigns
laurie
##anger
##koping
efficiency
alternativ
burt
##messe
##cava
trots
sick
##itation
foods
manufacturer
liban
hali
##izes
salute
trento
sheridan
##tl
spricht
mogli
##llar
wollen
klart
elmer
estland
##hers
eldest
1940s
handler
##osing
beating
himmel
reaches
nationala
traf
lech
##beu
qualify
10000
##ilan
sustainable
colt
kraftig
legendary
pater
pone
##mem
beschreibung
##tream
##laus
##ours
##borne
gelo
hyd
##erende
comeback
loti
##ionen
anthem
privata
cognitive
tabelle
##sov
dotter
motive
guests
tirana
##avio
sigmund
convent
enterprises
spatere
##iht
##kui
corn
salisbury
##olis
##hips
telling
geo
##iot
zeichen
##mni
dirigente
mitten
sands
zukunft
schwarzen
##cami
##wow
##liegenden
girlfriend
##gaben
##lion
destroyer
hee
##even
amphibian
colo
##dier
##ibe
##cir
cervantes
loco
##icate
##body
jang
##nala
##goje
leopard
bred
caro
pitcher
playboy
sello
internationally
adrien
albin
##lho
amino
erstreckt
##sper
repeated
##sgruppe
##endi
##tivat
maharashtra
##ished
phylogeny
barack
wesentlich
dakar
mauritius
uzbekistan
prestige
##xid
##kert
artwork
yong
##erse
##rader
##arias
reveal
##night
##sah
prozess
foundations
default
loose
##chend
##ystem
helicopter
##macht
judische
biografie
vorwiegend
648
achille
hyun
##eske
fahrt
##fta
generic
silk
gratuit
##tlan
tos
discussed
symptoms
##alas
bewohner
restricted
inland
erica
formations
##mentar
yamaha
faro
##zba
##type
tcp
maschi
tobacco
laden
##jay
##dru
##klub
telo
umm
eindhoven
unten
belli
gon
##viser
dut
##guin
verhaltnis
##zei
motte
protests
pollution
##handlung
morse
##lih
manufactured
##away
##otis
mand
liz
##dino
##fal
pleasure
##dri
autobiography
987
naomi
ubrigen
##abe
poets
##ufer
hs
##reko
unless
chassis
fabrication
##tritt
banned
autobahn
tiny
petroleum
##rinde
mythology
supervision
##gger
##ordnet
##hrer
ute
e3
wagon
arrives
halloween
##lera
shops
##pek
genetics
remixes
singl
gavin
verfasste
bose
##vente
##schaften
kaplan
planu
honore
indus
##meren
##noma
expensive
saving
##nma
cowboys
exclusively
##liv
veterinary
##leur
fent
khmer
modelli
grega
donat
##strat
helps
rasmussen
inventor
gesang
##xas
##vater
variants
##ulis
merry
harriet
mn
##istisch
flynn
plaque
elektrische
funny
bana
speedway
##osen
opel
devoted
urmo
fog
samling
presidency
##vian
accuse
incumbent
##vesti
##hale
##ugas
vereinigung
659
kup
bani
##izm
tida
rende
##igue
nietzsche
anlasslich
specialized
stability
twist
literacy
stadten
wolfe
zugeordnet
mord
##pac
hepburn
hiroshima
##inni
darling
consultant
cis
jedi
initiated
staatlichen
roh
belonged
##zuge
apr
volcan
##plane
traveling
##tali
suggest
forgotten
##jung
leagues
schulz
nationales
##irt
herstellung
dev
melodie
slavery
nicholson
pflanzen
brands
cueva
##phis
##sich
##brand
kanon
bezeichnete
unions
##cket
##sad
grunen
##bino
##buri
carre
##building
consumption
willen
##ksta
##ffle
bakar
evolved
maximal
columns
earning
##erei
##erda
##gok
##cans
lydia
billie
##autor
graduation
gemeinsamen
turbine
##maßig
##tras
fidel
kal
yos
feminist
collector
freier
grun
colle
##igten
##ikk
##veg
##ush
##rgi
flame
besuch
sonia
inscriptions
venedig
##dn
##eed
eige
realitat
fled
northeastern
##itud
primit
angriff
gratis
believes
tissue
encourage
baghdad
planten
dalai
scream
##taire
##misch
segments
cube
##cla
edib
curs
aaa
alps
##ezia
erre
##pite
verkaufte
##hral
912
##oog
satelit
grows
##yrus
gera
564
biz
##own
##plin
riot
##hf
fonts
##chon
##tteri
fuhr
diem
filter
subdivision
##unen
grants
illustre
manu
complexes
bahrain
ucla
##code
##fir
skol
boyko
jennings
##latan
conspiracy
fang
mundi
nathaniel
beneath
sail
enters
misi
fdp
##ark
##lager
##slar
frequente
felder
perception
##olog
zentrale
##fina
byrne
##verlag
##rken
cents
posse
morocco
rarely
theorem
angry
entscheidung
landed
##mah
##lard
tonga
##sein
weiße
atte
friedman
rufus
##fach
##cane
##rr
fallt
##dku
mun
##bben
hospitals
resti
##sola
##uing
##ktu
rubin
##druck
spiral
grandson
##unce
romanen
slowly
focuses
hunger
##eget
##rve
commented
supposed
decoration
##ances
##leutnant
occasional
proposition
stoke
##market
heft
lithuania
##gnant
##oco
manage
bislang
wasn
zustandig
methodist
##ppo
##legt
##position
lode
quota
eventual
##amu
##holder
##ooni
sunny
pirate
beetles
gogh
aufnahmen
pluto
##iani
bills
harlem
##ucci
buchanan
##dock
##kake
exemplar
genc
linguistic
relay
683
##iehen
marke
extinct
gel
sali
motivi
##torial
ry
##raja
gupta
finst
##ghed
##lme
sheikh
##siz
starker
moderate
belize
harvest
##halte
##note
identical
hartford
nb
balas
parteien
##suma
manchmal
circuits
##rven
goldberg
##erk
performer
##hari
cuts
cabe
##ysis
welke
##sdale
sekretar
verstarb
deficit
##wachsen
stab
##zca
##bergs
ruler
##metric
wednesday
##nb
pardo
##strecke
gesehen
tigr
depende
kombination
cooperative
secured
spaten
pursue
yorker
##verde
##horigen
##rton
##mera
stimme
##ultura
##warte
##mao
academica
darf
sculptures
buffy
##sers
##niere
stahl
##ugo
colori
halla
##atore
##vanie
cana
##iata
strikes
kuste
ungefahr
versehen
lauf
barnard
boer
jeb
poison
##load
einschließlich
##tzer
formats
legi
pw
einar
sut
##brik
describing
ayat
poetica
##ider
bae
mocht
forrest
##wers
rubens
discrimination
iraqi
flint
midway
1494
odessa
bunker
norme
basil
##garde
nef
owens
##trat
faa
raiders
shorter
livingston
tonnen
tragedy
050
sadan
suri
frog
norwegen
##eses
hawaiian
protagonist
wilder
receives
equations
marquez
##pea
creatures
stattdessen
##color
stolen
bollywood
##iciu
9000
kairo
##arra
negotiations
temes
gathering
missionary
##ologist
wesentlichen
##hole
peron
shots
pala
##wacht
mull
##klo
##pari
863
haydn
hap
##fern
##oel
##idat
##ater
doubt
prospect
##folgt
ausgestattet
##buru
##rill
populated
822
corre
customer
##sischen
##cient
##geschlossen
schwedischen
##oq
##uci
literally
entsteht
##mul
fuchs
##hien
##cello
##dorp
##ommen
##sert
spots
962
renovation
hide
fach
submitted
##erar
ruf
##ange
emphasis
cooke
entschied
helm
hae
marches
demonstrated
demographic
sting
spielten
anthropology
goldman
##tton
paola
spell
nutzen
outbreak
##ign
sonne
##iard
shark
##mination
modi
##aros
##gegangen
gaming
alf
char
##boden
geometry
erscheinen
rubber
unterschiedliche
wisdom
klosters
milos
satellites
externe
##tingen
beziehung
##nkt
alb
gatt
weder
sleeping
doll
neubau
kurzen
##llet
untersuchung
##fies
happiness
##bei
sphere
secular
##nesi
alben
tibetan
##istu
autonomie
verbal
souls
vietnamese
drinking
gegrundete
##rema
dure
belongs
##tase
##hay
##ilio
pastoral
pounds
completing
masses
##bere
815
##gkeit
##motten
moor
##ernes
cali
##hila
ursprunglichen
##onale
teeth
terrorism
trumpet
journals
photographer
refugees
symbole
corresponding
##matik
preferred
arzt
dene
infante
senators
stran
coche
erklarte
veg
bing
konzept
alti
ange
td
feelings
rester
vikings
reda
##akei
baute
tab
genomen
bestanden
##rrak
##power
##razi
volkszahlung
minori
measured
##weite
gujarat
ridley
jakub
##piele
##uler
##hora
##lity
divisi
##insa
infrared
hou
marble
roslin
##kane
protestante
##ered
madh
eliot
##caria
minerals
##fonie
##itung
soy
##mper
malte
invitation
narra
rivals
throw
ausland
integra
##zau
##gend
efficient
dose
tus
##iller
nit
##mittel
##lve
malay
mozilla
determination
kaufmann
mathematik
bezug
carnival
##leme
interesting
##sero
sailed
cerebral
##ctiva
rupa
wilderness
##zz
maas
jail
static
nursing
##ratt
iu
affect
responded
##chaften
825
geschichten
##tist
##uwe
##terna
##teral
erinnert
##sato
sabbath
looked
##zis
wilkinson
fernand
rutherford
##kup
##chee
shelter
##culus
erlangen
wealthy
removal
hep
qin
gers
##cist
eldre
##tae
fuß
farms
grafik
humphrey
##ggen
spur
##ehen
##ingly
##eski
ghetto
##stischen
##osin
bombing
##tkan
mede
##sierung
##rip
##mannen
##bem
nordamerika
##ckie
thermal
##mbra
inf
infant
sings
criteria
##range
arriving
dach
zustand
undergraduate
participant
philharmonic
developer
goddess
##reihe
##deti
kare
affluent
##usel
kristina
##westen
einheiten
erosion
fila
##menn
##mps
##hore
betrachtet
installations
##osant
011
bens
##ason
##eie
##atto
##lase
##hc
attache
##oned
gegner
##tay
diagnosis
supra
eisenbahn
hinn
shake
##atio
##upi
drehbuch
erfolge
brendan
presses
##esis
superintendent
##bringen
cori
zahlte
##rekt
##rosa
climat
loat
slide
##gels
qi
##rend
motori
varies
##riet
ivy
##nser
bugs
rape
geza
operas
predecessor
symbols
##hp
milne
##rical
##aft
siam
bench
backed
##hig
mitgliedern
##agne
##nern
##sprache
schiller
flew
winters
bronx
##lono
soziale
zeitweise
##nky
##syn
praise
##korps
miriam
##chita
townsend
reguliere
augen
dismissed
baxter
mundet
##lichkeiten
ethan
##tell
certification
exactly
##mino
spend
##mira
fool
##vins
reginald
infinity
##forderung
##itia
innovative
kore
salo
domino
sozialen
sailing
tsunami
slogan
whatever
publik
mole
webber
altesten
1050
bieg
##mda
##nadi
##assen
citizenship
mysterious
larsson
reisen
##ssing
cabin
everett
receiver
##liance
heile
botany
##region
722
##rode
shoes
tm
##90
reviewed
kundi
hendrix
syrien
##ographie
tena
drives
##llan
##gement
nennt
##bilities
cherokee
##iff
stav
##zunehmen
##fuhren
sociology
vender
a3
verhandlungen
##quen
sensor
veral
torture
representations
##inou
##sig
bremer
##deling
militia
surge
balls
statele
hongkong
manda
##yak
herkunft
kora
messenger
organist
##neh
encounter
##leder
##derd
besetzt
explains
##baut
quincy
abgeschlossen
tanaka
##sista
verschiedener
michoacan
sied
##did
lide
sowjetischen
danube
centri
trauma
gegenwart
nadir
madras
salinas
browne
sudostlich
##chtet
infolge
cynthia
nightmare
volle
furst
stirling
ebert
extend
##telse
freunde
einzigen
sva
originales
##bka
requested
##ption
johna
##iterio
##periode
convicted
boards
tarzan
fixe
sadu
dp
gat
troubles
##smi
##teres
treat
##lp
ruins
investigations
##dila
sudwestlich
##riss
arv
lowell
mapping
fjorden
##gale
##ssel
##tero
bore
##hage
dmitri
reducing
schaffen
farben
##trici
fogo
elementen
##oky
sharks
angegeben
contributing
discover
##ower
##mten
developments
crosses
karma
klan
rundfunk
##bab
essentially
entstehen
kontroll
sichuan
frankenstein
##ression
turca
cuban
aerospace
##chal
narratives
gebieten
knee
umfasste
kopenhagen
##teren
##ynt
##bst
##aler
denken
promoviert
##rift
kalender
##sschule
reaktion
cosmos
papal
yucatan
##hana
##rity
manufacture
##cris
649
lent
geoff
atta
evangelisch
##cribed
##roa
sovjet
telugu
italiens
genomics
##utat
besetzung
netflix
##lke
superstar
visits
shiva
##isku
erhoben
hellas
westwood
materiali
##iban
cosmic
##yw
hog
promo
originated
##lings
carlton
##mig
##bala
exhibit
stuk
schied
weisen
missiles
punishment
italienische
##hium
ille
##tella
##kud
##gali
##urie
opponents
buddhism
perm
##hwa
chopin
##chule
originals
begannen
##stante
moody
americani
##setzen
##98
##roma
abgeordneter
##nthe
gases
##iben
ping
rb
##arm
##mission
essence
gallen
rodgers
wash
cody
universitaten
##brucke
summers
katy
lexington
inverse
##sang
invertebrates
turkmenistan
##ymo
intermedia
##ensa
##sehen
vulnerable
yankees
719
##uele
hannibal
instructions
hobart
boogie
##jans
##erson
workshops
meadow
burned
sank
jansen
saxe
mase
##sants
bernie
##bele
cw
gottes
transformers
crucial
##raba
participating
duda
myspace
bhutan
##pant
altere
macintosh
patch
##ography
frieden
amat
##nix
voltaire
holes
##rore
2600
diving
##beat
##wechsel
steady
geographie
biblical
756
##rell
##thy
##ingu
bora
682
lesbian
cort
damian
extensively
misa
eh
miro
bons
kobe
##placement
mj
alec
wizard
##frage
gateway
##wm
thornton
##west
verdun
correspondent
nec
kahn
##ifen
dewi
retreat
verbrachte
deadly
##β
unabhangig
himalaya
ruine
##gliedert
##nki
##oos
gesetzt
tender
exemplare
manca
matriz
kome
simultaneously
##fung
beschreibt
##vee
sagen
##formig
##ced
kindergarten
riaa
schroder
scouts
##slagen
##yg
territorium
schultz
##tert
klassischen
sendung
funktionen
modul
dug
protesta
##shem
rece
##ferenz
##geben
allam
consortium
satz
singapur
aufgebaut
siegen
sorge
sicht
ideen
lenk
characteristic
##veli
##yma
pasteur
radial
lore
schweren
##bord
beginnen
britischer
professore
##nett
heide
beziehungsweise
##zeuge
milion
mccoy
forti
vengeance
auditorium
##ministerium
trilogy
payment
##horst
##xiu
kovo
schreiben
diaspora
illusion
##chef
streaming
hinweis
##oha
numeri
##elem
##tende
915
##ourg
##ulate
##wna
nationalist
filiale
easter
blonde
abba
651
layout
passports
pointed
juliet
cleopatra
spielberg
konkurs
flucht
sinai
##etus
terrorist
##roffen
archipel
revelation
##biti
##xide
reve
definitive
grana
##vald
stronger
##kampf
assiste
portals
ukr
forget
##enar
##fres
barrier
joker
bearing
lighting
kiri
##zufuhren
aware
administered
width
explain
konte
##rzen
rats
delay
saale
ufer
samson
baton
##glu
distinctive
strait
caledonia
mythologie
dortigen
hulu
##dius
##posa
sitcom
##ppy
adama
flachen
pesos
watching
##fier
##buk
##celle
laufbahn
prey
freight
nordostlich
diva
nordwestlich
pampa
dha
nessa
##emen
##rtet
##hammer
diagram
asta
statistisches
##czynski
telecom
##mburg
vende
superar
##marken
boulder
##nischer
##lgar
labels
##ptes
blume
aq
inquiry
canales
##ellan
diamonds
oberhalb
fries
curse
einrichtung
malaria
jug
##iaus
geology
##ulin
piet
##nota
pelle
##inha
hersteller
compatible
verhalten
schuf
prometheus
eil
1280
##mler
##sser
##ride
##ayan
panda
voltage
nike
arguments
##nami
bahamas
neon
troupe
altes
4500
mandarin
sociali
clapton
organica
##hine
pull
militars
toby
derive
suck
eating
##hend
##lovakia
globale
turks
kroatien
seither
wembley
generator
##rets
aims
angst
pali
rumanien
##uble
##boa
##horen
pizza
highlands
proud
unterscheiden
##folge
disciplines
pave
loud
##losa
##sheim
spirits
hasa
recit
veda
resignation
entity
geist
kip
kos
linien
peta
verda
##mated
gau
stops
confidence
chronic
##roz
editing
eleonora
##lacht
##pisch
alvin
dialogo
vana
abo
provisions
##wah
touche
##rikan
alp
chains
eroffnete
##chutz
farbe
negativ
maste
##hd
hauses
adopte
fatima
rud
729
robbins
celebrate
estima
dent
##outs
inherited
heim
switched
metropolis
opens
##fk
wolves
jasper
chapters
elan
footage
mimi
##bide
##nzio
patton
##omme
earn
##bica
favourite
bermuda
##fang
fruh
induced
verfassung
##pler
rn
celine
kors
piec
email
linke
##pira
tp
drain
levin
verre
decca
exhibited
mcmahon
komponisten
amounts
flesh
attempting
panic
stig
##lz
##sliga
psa
verurteilt
##laufer
chama
merely
implications
##oit
projekte
stanza
barri
gee
everyday
schaden
##kura
koma
##ebni
##mande
murdered
relating
crops
kolonia
##bba
lafayette
toile
##atica
kuhn
##zler
##verfahren
blad
nadia
beaufort
mound
produkte
mist
##bauer
grotte
enhanced
##hot
sql
##acher
0001
bike
verdienste
##atum
##bom
klara
petition
journalists
hoheren
explore
kabel
existente
rosie
sorbonne
##yte
apartheid
##telling
##urd
##schriften
##hab
##vaci
miteinander
posts
##logen
simpsons
##psi
newark
##tub
##rche
662
meli
##gion
##mlich
carries
revolt
renowned
bec
urbe
##ntat
madness
##uth
fountain
prete
christen
##reno
bihar
##isena
##ube
##volta
advisor
consciousness
##child
fees
piloti
##chnet
humanity
forderte
##elta
mladi
suddenly
##anden
##foto
voyages
euler
mehrheit
rockets
##isted
unika
cow
2200
getrennt
visions
verkehr
##jahrige
##inje
perso
endnu
lia
positiv
##forde
reproduction
patrice
maist
pensa
##citi
safari
##ntin
vorgesehen
rem
difficulties
lothar
originala
rude
elevated
messo
##kind
ersatz
giri
inklusive
downs
observatorium
##viert
##lur
lek
##anz
##kuk
##gitar
willi
coordination
##rupted
somebody
##rungen
statements
vip
##2010
##illing
brings
##esso
strict
delayed
grunder
##bny
demands
##folgung
protege
##diger
frontal
ruhr
##arbeit
##rry
##lese
proves
##fik
##rbeitet
fakt
schwerpunkt
cod
##erate
##turing
composers
symposium
elsevier
##ssin
##zle
lippe
##raphic
gegend
verandert
manufacturers
pne
nickel
##wil
nikolaj
midland
memoir
lucie
queue
improvements
casualties
surf
consensus
playground
dud
heidi
tensions
##chafft
##timi
##disk
##osten
bera
##ratie
##yed
nachrichten
##tator
##ision
manson
komplex
pakistani
putting
hypothese
##ivel
ausnahme
poren
religiose
##funden
suburban
##ruga
##schte
phases
korpus
kenntnis
##statte
feels
##toje
multimediale
shoulder
allgemein
informed
kris
##atia
##ulant
sofort
wilkins
##orie
gelegene
759
##wicklung
suppl
##asen
governance
meadows
supporter
avatar
##nges
##sita
patriots
statues
##orbe
discussions
rathaus
##ustu
##sava
849
mature
prose
##live
promised
##buro
nephew
sj
desktop
##herr
##ibility
##ffre
##isant
differential
##allen
plantation
denkmal
distances
penelope
treasury
##rsk
korn
##lm
##glie
kandidaten
exhibitions
hed
mandela
russ
bentley
##nida
##zog
##gehalten
##echa
decorated
##dha
tasa
##hurst
evident
guidance
partisans
quarry
nationalpark
##kau
ubi
aner
876
zeta
electrons
instructor
punch
804
goldene
varianten
##ected
##word
ludi
hume
heir
wanda
traten
venti
agree
monika
staatliche
devi
jonsson
modifications
stevie
tb
acute
##ernen
##icina
defended
ermoglicht
##sur
woj
##elar
zentralen
##zium
magical
gentleman
nj
##mei
##tuk
widerstand
##asz
##lusi
robots
contracts
##into
##mack
greta
aida
depicted
##dong
##cible
##toren
antony
##gula
##stisch
##rgan
feng
hohere
##ntal
##gewiesen
approached
frozen
##kare
lecturer
tight
besitzer
amtszeit
combine
mom
##sees
sachs
clinic
##sno
ssri
##vue
compensation
aktuelle
finne
##rest
##peda
##angen
##ruf
breakfast
seemed
##tman
odyssey
fda
##suna
##elling
happen
##olat
gabrielle
operators
##rmes
##chel
carlisle
memento
stub
existiert
tima
mats
lying
sheila
probability
banku
ideale
hintergrund
commanding
interchange
##ored
##quate
##chner
ema
##nner
titans
gifte
nikki
##acie
ehren
##mori
elaine
2300
pili
opinions
##fici
militara
aside
bissau
hamda
nominal
tested
1390
legale
cameras
zit
juda
##llu
creed
yok
gemeinschaft
eje
enjoy
robb
staates
zil
##ragt
ubuntu
danielle
entwurf
##tema
entrepreneur
specified
offentlich
burial
firing
##ref
##riff
monetary
vereine
blatter
nannte
stellvertretender
beg
##hys
pavillon
##sif
##villa
confused
extends
sicherheit
##direktor
venues
##handlungen
boja
founders
controller
##esor
nirvana
vint
##utt
equity
testu
##neau
menge
provision
zoologie
minds
reforms
vergangenheit
##tilia
governing
individuelle
pts
zappa
##tov
displays
paperback
snyder
ups
dumas
##nkas
superiori
##hino
amnesty
blank
reformed
modelle
tide
tenant
##ucha
kanalen
battlefield
colored
halbfinale
temperaturen
jb
##radi
##yol
reiches
difficulty
eisenhower
strukture
relais
terence
##bosch
##chang
##bauten
shire
artene
zip
##enet
konne
lawson
errichtung
drome
remis
##vira
stiftet
##gier
chinesischen
##yin
pig
assam
duche
##itori
portions
hartzen
midt
niederlande
##hiko
selve
proportion
##hier
zugang
##ulet
nationwide
##illus
flowering
rockefeller
currency
homepage
trance
##dei
sangerin
##lasma
hires
jumping
##ogische
sup
##foot
##nani
885
pernambuco
##oiden
angeli
rehabilitation
##logic
mesopotamia
tongue
elemental
reicht
##lingar
coups
cyclone
basica
ear
gaia
amateurs
muto
muhle
##racht
##sichtlich
bento
##xio
breast
##hom
##hoek
imaging
##mals
869
restrictions
sinatra
##tite
##anik
##ndar
utility
##zini
tk
berichtet
remembered
namely
956
pulitzer
scales
sending
shrine
bam
##flachen
parameter
documenti
festung
befordert
halls
interessante
##eits
escaped
kok
exemplaren
firefox
##wissenschaftler
telecommunications
pulled
risiko
lasse
##bibliothek
ceremonies
omaha
##passing
cruel
supplied
caves
baan
##steller
promovierte
##ausstellung
##lats
##gian
compiled
prophet
##fd
ester
auszeichnung
militante
quoted
arabs
sharma
nathalie
##broken
##xin
zumindest
macon
##ifica
ergibt
vorstand
##send
philosopher
caldwell
trait
##lasse
ilu
##life
onkel
differenti
algorithm
souvenir
##42
monaten
##enio
simulation
bono
##hilfe
variete
##gone
credito
gert
##ows
nominierung
franken
##lins
nickname
drago
eigenes
enric
##duct
##sdienst
##istente
kontrolle
fant
harley
helft
intensive
##nth
automatically
hire
arlington
##telem
##hop
##dust
smash
modeli
##aha
domination
ally
lux
ausdruck
##nap
##illas
##ility
banten
chest
mandate
contraste
ges
##mines
##erang
kapitel
dolls
kamar
##phi
##seits
sunrise
wege
##ifik
##parts
vintage
woche
##stru
thoughts
knock
salva
topo
auftritt
emirates
ail
##83
aqua
judgment
seura
particle
##pion
##jur
iman
sagan
##boat
##lesi
ehemals
endgultig
uberhaupt
buro
##site
internationalis
einzel
naa
placing
tucson
apocalypse
2100
maschinen
naga
##felt
entlassen
##gangspunkt
aerial
subway
##aben
clint
viktoria
##tations
##cien
##etas
##izu
##geleitet
rays
sasa
poster
##zustellen
anglican
##lance
##obo
##parten
##stka
connects
##rens
##gami
blacks
xl
illustration
##pri
existent
##chin
##bona
ater
referring
upe
novog
##idiger
##oly
826
##ghe
bulgarien
mf
methoden
##ash
protagonisti
##aig
außen
##yel
developers
chandra
##tree
##riba
curry
tnt
##stine
##svis
##bull
reprasentantenhaus
juliana
##allt
asylum
rifles
##zawa
chefo
modification
velocity
##chant
pats
##cua
##ichnet
##reda
consolidated
replica
nak
ufo
skating
##duz
ataturk
brecht
##scheiden
mak
angesehen
##iegu
communis
survivors
genetica
armies
wim
##meid
##stande
diagnostic
yama
vease
align
einiger
deadline
vieira
##hade
##lated
cortex
decima
##dani
asking
dickens
caf
##lamo
##fm
aboriginal
deposito
petty
weibchen
inversion
dica
estimation
864
##lord
erzahlt
traits
##wki
particles
homi
sioux
klinik
baum
escort
peres
tora
lifestyle
speciali
tropisch
liner
mekong
sized
sini
zag
verne
großteil
##ousse
milliards
zeitraum
##rl
legato
poola
##demie
vine
ero
997
chur
##ziehung
peli
sprach
##ammen
##usten
comparable
##elma
theatrical
vok
diplom
fry
halbinsel
##pton
##eert
announcement
##iziert
spektrum
##tones
reflect
authored
valida
jenna
##efer
bauern
resurrection
objekte
##wandte
monterrey
nominee
##scheid
measurement
##piro
862
burgess
militant
##boot
2000s
absent
anhand
numera
sak
viru
amerike
verpflichtet
##vski
##chloss
brutal
sinaloa
982
cain
shirt
thursday
michaels
valentina
984
benton
hopes
##bati
##gesetz
bestatigt
pv
##leis
extraordinary
vc
dokumentarfilm
jog
cops
##sprung
##wahlen
scheint
##icie
scope
stafford
mob
quantitat
phenomenon
##mmt
andererseits
##dati
beliefs
attacking
##aen
##ussen
sensitive
maud
skill
consist
stuff
pump
armored
##hoben
archie
##rega
##zuar
tenu
1930er
kovacs
erreichten
##etter
lagoon
##kwa
matcher
##gerichtet
afrikan
observa
cindy
luci
domi
musika
reactor
makala
damalige
##kuma
harp
modulo
motorola
operative
##rieben
drawings
##due
graph
titeln
verbindet
kylie
20e
pib
plage
##flies
##chlag
fix
jude
##roda
##rance
lombard
maßnahmen
tresor
##ague
##uchten
peck
##enus
##oide
messi
##idla
##tof
##tums
batteries
humanities
##latt
juno
##statt
ecological
lave
hobbs
##smen
entstehung
fisk
mahal
dolly
054
stu
diel
revolte
cone
bourgeois
bestandteil
##fassen
dental
##weist
nationalsozialismus
##mpat
versionen
sata
buhne
valence
##uvre
synthesizer
denomina
##platte
##tels
borges
everest
marokko
ausgefuhrt
collaborated
tamara
vermogen
verhindern
dol
##aida
##gona
##horus
##zto
hals
destine
retro
##sette
kune
##fende
comet
##abi
##ieu
##systems
lernte
ritchie
seize
stucke
##haa
emergence
equality
nase
##tric
zinc
masculin
##tla
beschaftigte
jacek
##ufe
##nys
imagination
##ribution
nearest
accounting
##uerung
bolt
##kre
programmi
844
##glich
interval
##hran
##ziali
errors
##zut
##odie
esp
##enheim
erie
##beta
golu
publ
##piece
##uting
bata
##olic
boone
tani
##andi
enigma
##nema
jimi
arbor
generali
schwere
##uzi
reci
theaters
##gap
##pc
##trum
##pli
passat
##reform
blick
gemalde
arbeiter
geborene
##gante
angenommen
sio
patio
758
reflexion
##wine
weir
deemed
tibor
##brate
informal
charlton
gefordert
losung
dorset
marken
##four
##ptor
##stellungen
koor
##nome
ber
cdo
pistol
##geni
##iling
dhaka
##85
dila
##bola
behandlung
##usly
activated
##gum
recalled
retten
##ulf
##igu
##play
existieren
##rust
chrome
fertiggestellt
loste
notices
execute
fires
villas
gewinn
mahler
levine
##produktion
calcul
##icat
##czka
##owicz
dank
kathy
aufgefuhrt
##xton
propulsion
##tech
##dish
##lenen
dealing
##ift
niederlandischen
prit
##lares
##ndus
barrel
prizes
gedicht
mailand
##ziert
##ative
##haber
innere
commitment
dritter
##ranno
##semble
##lament
rss
cooking
##nomi
##nzar
moe
tunes
hemisphere
transforme
bosnie
971
##heimer
##zari
##platze
##chlecht
##fallig
banana
##cq
platte
pul
dense
##yri
##uine
##gste
##sgebaude
vorbild
astronomis
summa
somewhere
spec
infor
œil
silicon
hoover
##zehn
whale
##sbezirk
##monia
endurance
rege
##ladu
bread
knife
magno
##lois
banjo
##iende
interessant
varieties
extinction
bier
zoom
constellation
coas
gula
##annen
nut
##rette
libr
rf
ghe
juras
malone
padua
761
##zich
##ulat
##gik
##mian
##kums
##reste
isn
mamma
zumeist
sentiment
##kip
##eous
unified
##boje
handlung
ivory
pagan
brahms
##istet
click
dupont
voyageurs
vergeben
pap
ramsey
tach
benne
kgb
caput
tough
dissolved
augustine
##lti
hieß
##ssitz
##handler
961
reds
##iati
unterschied
pushed
##nimmt
einrichtungen
olsa
mies
##idu
##wg
invented
shaft
##abat
thereby
mittlere
veren
arie
##mula
benachbarten
eisen
iwan
failing
skinner
salsa
##nissa
vierte
##grafen
barr
##tenberg
jacksonville
##yda
albuquerque
faux
damien
##hmi
civili
hain
pavilion
dinosaur
macedonian
megan
##22
##zl
##dende
majesty
pause
##estre
leitet
sire
##lux
##rome
841
makan
##yga
daß
foc
##chni
##penses
##sbereich
soma
ashes
leconte
molekul
stored
pony
temporarily
huntington
macho
rudi
feuer
proba
vini
drove
##ggs
edi
sectors
bildhauer
##utus
##ichnung
##wit
maternal
##alon
sooth
##atic
belgrad
farrell
2021
##iso
##egan
appeals
debit
##pian
visione
##etz
##nast
geschat
##igio
##hibition
##lons
##listi
produktionen
##raft
kafka
aggregate
##saurus
mentions
pedal
releasing
3g
banken
healthcare
meier
##chtung
origina
tana
##sfeld
relie
hund
##ovar
beckett
passages
locus
##oue
limestone
sels
dorado
bui
gestaltet
avon
##griffen
##erungen
lav
peri
landau
eroffnung
resumed
traje
##talo
meisterschaften
countdown
schone
dialekt
finite
hf
gast
##zera
neighboring
zuschauer
ernannte
ish
umgebaut
##reise
##etum
##geno
hypothesis
lewe
##pted
##technik
bonds
comedian
wolfram
##horige
recta
anlagen
gulden
nitrogen
##pfen
fig
##ritte
agraria
calcium
descartes
##quel
gestaltung
runway
##rador
buzz
##pai
##state
bisherigen
loyal
kep
##nasi
eucalyptus
soja
rises
verbo
##raphie
##ecu
##djan
orthodoxe
kleineren
##rap
agypten
##blatter
crest
##schau
##harf
##yv
##bagi
##delt
kulturu
padi
gertrude
##sp
##kada
##graben
gathered
##unkt
##utica
behandelt
fault
wives
rit
biochemistry
blas
##sreform
islandi
##peri
discontinued
##karriere
matilda
textile
spelling
##ließ
trotzdem
##teng
javascript
reverend
##fekt
rogue
##renia
farina
##unternehmen
lis
##oves
tuesday
##lady
##prochen
##tski
errichten
highways
##rint
counts
filial
geary
physiology
##mali
offshore
##game
sensible
bringt
contacts
tactics
getotet
gerra
genannte
##rete
##sore
hangt
merr
##nbar
##altet
ammunition
##rous
dim
arees
cottage
kolm
marcin
techno
hanson
trucks
demons
##cul
zack
##paar
hectare
##gange
pulse
broadcasts
krankenhaus
##media
##gek
stamme
bedingungen
##aute
##pne
abolished
bueno
consulting
##nst
##bete
derives
##sford
##tlichen
kilo
gameplay
portfolio
stretch
##fru
nuts
premierminister
##ivitat
##schuss
1368
maintaining
##bage
professori
tasks
healthy
##xter
kalmar
solem
##icular
concu
##oil
eb
##ktas
litauen
##dena
##nec
kriegsende
courte
musicals
##singer
atmospheric
corridor
sylvester
gere
anonymous
comfort
systematis
##phones
participat
##gles
##india
##gati
kurzer
vasa
benedikt
bv
owl
quarters
bitte
isolation
sabia
##samt
##owiec
actua
arcs
infrastruktur
entsprechenden
##zielt
hutchinson
##forced
##punkte
##nelles
##werte
composite
tiefe
camping
##elde
suda
##nion
mys
prost
documented
cheese
antenne
creates
css
##dosi
discuss
##chor
hubbard
cass
lexicon
ensembles
owa
##beitet
##dlo
##oncil
##tens
disputes
camus
##umba
inni
veranstaltungen
beira
modus
##lop
##sain
##satte
##kha
##wet
extremadura
unga
maz
mh
##adt
tex
mici
incidents
##case
durfen
sake
##rco
dozen
sculptor
aleppo
schlug
##matica
##wahrt
icarus
handelte
848
cien
understood
vag
##nnis
viral
convinced
lanza
##peli
orchid
altered
##blichen
##arbeiten
hauptmann
##ikow
##rial
spice
##gebouw
##philus
befanden
dorfes
unternehmens
einwohnerzahl
enden
coached
##ierungen
##pass
fahrzeug
offiziellen
krause
bangalore
wunsch
fede
##zti
consequently
talents
precursor
pam
##sea
##ubi
##ndt
unlimited
##cides
kristin
stadtischen
##itee
mises
presbyterian
fossils
uranium
##lust
restore
##geres
##uska
woodland
aktuell
cheshire
##beau
marley
murders
zang
larvae
collier
ipad
##garan
##gold
928
dominican
prestigious
##gese
##onos
notwendig
extending
uprising
hierzu
cant
##ssal
lemn
782
susanne
##chnik
forecasts
italienischer
vr
sixty
##maid
carbone
stabil
barros
##sait
listing
clothes
guangzhou
bunny
##uzba
##torie
hiroshi
gekommen
helikopter
untergebracht
addis
identitat
erlangte
netz
tasta
scarlet
sustained
##xida
coli
fairly
trifft
##rative
##roka
##riert
syrie
##arium
gewalt
gorge
formie
addressed
aggressive
hayden
##veren
speaks
thom
##nnar
melville
wechsel
##stem
investors
psycho
##haga
##atak
arenas
limoges
##pili
focusing
hause
smoking
##reus
concerti
##fl
yann
refere
##schop
##unge
geriet
slovak
airborne
abilities
##kust
chom
##ghet
interni
##glione
##ink
acum
##oney
##zeug
##ugi
skor
hind
holte
##rev
acu
ryder
mast
##raten
receptors
religione
politicians
##nesian
crossover
##lku
##ocene
parken
naturali
##chow
specimen
sportu
welch
seriously
stack
##alten
verbindungen
##zusetzen
condor
laureat
mitch
thank
streams
##smitglied
931
indicating
griechenland
##hero
arteria
##sja
##dits
eigenschaften
##arata
##nl
mixture
siegel
ringo
ares
hopper
##tend
treten
rite
binary
forbidden
leider
bina
griechisch
bia
##cente
aron
perceived
##monte
##scope
slut
verbreitung
simeon
##skirche
dh
pyramid
##tast
##denkmal
heb
predominantly
##industrie
eyed
##ject
defa
##dut
codi
leibniz
##week
guys
recruited
lotte
byte
##ganger
##gestel
##ried
##wee
locality
matias
nationals
##mium
aktivitaten
ortschaften
##omet
runden
rute
##iments
##trag
mpo
regardless
##tellen
kommunikation
sparks
##orer
starta
##yani
##yde
suburbs
##zeitung
mazda
asam
managers
stammte
##nnt
##rake
##cee
##riers
##imen
malerei
nagasaki
##ttel
lokalen
##zuli
##ators
##sier
goose
##rail
antik
fjord
peder
##kani
namlich
fes
improving
bestehenden
yoon
##gingen
eth
##ciato
bicycle
25th
harm
partition
gamba
admission
##dry
tigris
##rtier
challenged
##gerung
##kast
augmente
makers
monumentale
renta
yoko
estimate
upcoming
ursprungliche
##blich
##korea
##ptive
##rnu
combustion
duration
geweiht
##sierte
astra
##kene
committees
##rive
##gebaut
fewer
guangdong
lib
##wandt
barrow
serpent
##rgy
##zahlen
##mitteln
yesterday
takt
##alse
##dain
aftermath
sapiens
##erm
##isie
##ndal
##seur
versetzt
araneus
synthese
manuscripts
tafel
gangster
cate
ausbau
modeling
##terio
##reso
bauten
eigener
mitteilungen
##nland
##piti
nessun
furniture
clown
##wohnlich
graben
##pca
##pl
privaten
##bron
sobe
aktiven
demokratischen
daphne
fake
handicap
deliver
speziell
##stock
halda
strukturen
banden
##nyme
##times
narrator
##gging
##heer
afi
greenland
##bone
contribute
tira
zan
##dert
widmete
##sera
##zest
turing
cricketer
cochrane
##rines
atm
dayton
eier
prelude
##rila
scheiterte
##tatte
jacobsen
definito
##lift
##ndel
##enci
dossier
##mati
coincide
sharpe
gl
##iez
gestalt
##tial
##rque
836
##rci
##vaca
##bee
##bewegung
##walk
delft
##uor
thatcher
##nahm
##hockey
findings
##arri
##bale
motorcycle
alarm
marit
998
savannas
##iefert
##wende
prototyp
wirken
##icato
aufl
requirement
##kati
campion
##enko
dage
beaten
##enter
chips
fassung
dore
herrn
heading
pronounced
##ignis
##nating
cur
schreibt
##figur
actively
regeln
kulturelle
##mou
mixtape
ais
##ceau
ler
##ynu
endet
##chließen
considering
##muhle
altstadt
##selle
blatt
hilda
##leger
cavendish
imprisoned
##river
consideration
resistant
kosova
##inische
stefana
hillary
bici
guidelines
kulturen
teodor
##moor
##stat
labs
notar
feeding
ions
turtle
analyses
##uddin
romische
##edel
chances
##zman
##wertet
supernova
leather
##amas
bury
yacht
inge
honored
##itur
funda
jahrigen
industriel
##hein
##ruption
##tod
mood
##ndri
1455
breiten
gambia
angebot
##sd
malt
##gget
amon
##uted
##nomy
##using
feast
##radio
##eille
##nari
##pace
##sele
##tikus
generate
violon
##tma
kunth
080
##bini
##print
noti
kh
fuck
complement
kaj
##roj
reflected
milo
##undu
klas
installer
deeply
evita
##nommen
ghosts
##yll
knockout
sagte
779
draws
##ruch
##etting
##rvo
##iting
##rgt
truly
bereichen
##each
aunt
koa
##zenden
modalita
##ngere
##sworth
waltz
bluten
ava
priests
##isir
transformed
geometrie
##ods
dhabi
transcription
##frau
##uita
tori
manifest
produzent
sovereign
helium
nis
maybe
granit
dimitri
sandwich
fresco
##gora
duff
warschau
##sut
umar
##roci
macarthur
browns
##ards
##grapher
elli
##vado
daly
##ulier
##gae
lease
##kend
##loid
##geschwindigkeit
##loi
##gation
##lame
##leigh
jk
##rdia
##glo
fortan
##pid
##lungen
kurdistan
grunde
kohler
nagoya
##rophe
bottle
schaffte
##missa
demolition
funften
emotion
accommodate
enabled
joanne
deals
wicked
haifa
cyber
sauce
verwendete
##dim
requiring
##dee
##nfo
introducing
syne
##enan
clearing
##taat
##hume
lulu
ausgebaut
##lache
trips
##hofen
cycles
pep
##onis
gitarre
toxic
##roni
japans
pixel
sicher
##esten
reflections
dugo
tubes
intern
##reiber
##haf
michaela
##kvi
nutrition
conclude
samtliche
##bern
hol
followers
guthrie
basi
brennan
zweier
assassination
definit
tracking
##szentrum
independently
auftreten
globus
monarch
krim
besonderen
suva
conflicts
berkshire
collision
##fic
##ohn
##udet
##venture
##kunft
goldenen
##roes
##dbe
lapi
feedback
levante
momentum
boots
##orica
basal
stats
##igues
##geordnete
tamo
possessions
vitro
tut
mortimer
asiatic
macbeth
listening
##dela
##roll
##writing
uran
##avier
##nur
kans
calculation
damascus
##falt
alley
progression
##gst
pantheon
clouds
tapes
aliens
fahrer
timer
##shin
##eik
akit
realized
savannah
##pens
christlichen
##icine
##anlagen
##sstandes
bombers
##liegen
055
lansi
astrophysics
abrams
beispiele
shallow
correspondence
fay
basement
puzzle
supernatural
voli
##chure
confluence
organs
pate
##nated
##virus
monat
##zom
verses
banka
##ckel
wai
chega
chromosome
vacant
##garren
civilians
posteriore
theta
##aldi
##roche
argues
kabi
centered
karbon
loaded
halde
environments
##ffi
forcing
flexible
magie
surgeon
woa
##geschaft
galway
hicks
##lter
##ehmen
seventeen
healing
thief
cab
expanding
religios
##erre
willing
##zino
##ained
##tko
einst
zweck
triangular
##uent
##nson
##zeli
pekan
brilliant
wore
##klarung
owns
dubbed
##fos
##herent
brann
##moni
tandem
##holders
sudden
dewey
parameters
##foni
bigger
juice
##titude
entsprechende
##issen
##xion
##neur
pnas
##insky
##sitzenden
##brio
##romis
clause
##uft
##tw
hosting
lank
##ulous
canis
fs
glauben
nationen
##logisch
##aust
climb
mane
##gasi
kurzfilm
forge
##elos
krater
##wave
2x
farewell
##eger
##arit
##horne
regen
terrace
##inder
junger
logos
reservation
##mari
homeland
unterscheidet
phylogenetic
##benen
##eist
organisiert
regulatory
##nses
remarkable
##kve
colleagues
interessen
##lias
arca
somali
gc
##rox
gaining
benannte
lounge
##ipe
##rdan
##digung
##ecto
offizier
##phes
rimini
##cript
hispan
minne
##ctions
##spinnen
motifs
bedeutende
cede
lenny
##bari
nobili
proteine
performers
maos
##vosi
vielzahl
koran
##utos
anerkennung
mclean
mice
##gefasst
republicans
sapporo
##navia
initiatives
##jeri
##dhan
sahib
extraction
saut
darius
bati
discovers
suites
022
vistas
incorpora
cartier
##sult
hayward
ernie
naturally
puma
veli
##gewahlt
maintains
desperate
kennt
asse
##books
##gelt
##kasta
volumi
##valent
##reiz
militarischen
produzierte
azy
##ntie
##ination
inflation
donnell
jurassic
armin
blanki
guided
shilling
dirt
decree
dorfer
##ganti
djibouti
##mando
walters
harmonie
##anka
##big
arg
fulton
##gant
##wegs
kp
planeten
bein
mta
announces
##patrick
patti
sketches
##fio
vt
##usti
letztlich
##cology
mannchen
##kade
##wak
wetter
##deg
modest
##fiel
hartman
sasha
concertos
##held
hamas
tickets
kapoor
##chino
ungarischen
propone
##esie
hatch
circles
synagogue
##hologie
klarte
expeditions
##bela
##lora
bn
##nded
provinzen
comprising
molecule
hirsch
koniglich
knots
laboratories
##mez
gefahr
bombs
ipod
getroffen
##sgeschichte
hb
dressed
consent
illustrator
emotions
floating
erfolgen
##phase
tahiti
##dice
nano
triste
##chieden
makt
photographic
##prach
exodus
##source
##aker
separat
##vun
transaction
svalbard
ers
jener
lots
kopi
jing
cobb
##aille
weshalb
##hil
##fis
stamp
##mora
##ossen
##opi
tola
clio
deutschsprachigen
##hawk
##arde
kernel
1920er
##pene
##dlichen
equilibrium
authorized
manages
##ktiv
realm
##hochschule
hegel
storyline
nh
##isu
##rkt
glee
buster
pacifica
##jord
zufolge
##deta
##fait
prevented
conducting
cameroon
defini
molde
kolkata
##ndere
savoy
smiths
willard
##sions
institutes
contents
##oul
##simi
pariser
lyn
##fone
##ometa
040
madhya
renewed
fazi
patrona
sonst
##robe
##zeichnet
heter
ris
##bry
##level
brev
geburtstag
pregnant
lust
arnhem
allende
technological
hilary
solchen
velo
collect
mada
bodo
pipeline
wichtigen
##woman
##erad
##imate
##rmi
##teris
##sori
unser
mild
##quo
##dungen
fac
kleines
##45
##acan
##lining
##aud
##tener
konstruktion
##tischer
translator
sitze
kamil
alzheimer
##bena
##pione
novelist
erfahrungen
spar
risi
##ococcus
kei
##llia
fabrik
beendet
whisky
ric
##uss
##runt
##entos
wand
bieten
lahore
robe
##eriti
##zee
##hort
##richter
##nzi
bonnet
aktion
beata
brachten
odin
governors
knowing
maske
behorden
bluetooth
##nstein
darba
langere
##guan
dances
##hah
barone
falla
iq
##ryl
riches
wesen
foley
desselben
##sare
##asie
provider
nilo
##dieren
outlook
regler
##ffet
##irdi
##ledi
095
targeted
ateliers
##finden
packard
lila
##enland
debates
theresa
limbi
erhoht
##rax
quit
##uq
permanently
citrus
##hafte
guo
##ozas
patty
##asien
integrale
##mn
##birds
nava
allegedly
verhaftet
dramatica
weltmeister
##wart
grosser
stationed
volcano
bur
sorry
synagoge
reus
##sons
vents
831
alert
innocence
investments
##henden
floors
haec
nachgewiesen
##lande
yoo
junk
##thur
ezra
##fida
ayah
##edne
closest
##vst
##dhi
caste
bru
katz
cadillac
demos
reist
construct
organize
sudafrika
##gast
basiert
batting
breath
erwahnung
##arsa
additions
beruf
helle
##eos
injection
jahrige
##tami
brittany
transforma
##eba
entfernung
robo
##geren
##tach
moglichst
##jol
##venti
flugel
##aea
##mom
fru
jama
ours
assignment
severely
bildeten
##hter
hometown
leid
nesti
plug
##dacht
solis
##zyli
tackle
##watch
cardenas
##ough
trigger
melodi
niagara
tolerance
universelle
098
priority
cellular
lomas
scratch
##roman
brt
tyson
seneca
droge
strictly
rechter
##große
##tting
erzahlungen
meditation
##versari
##ead
##sua
##klus
zach
lautet
screening
##pung
##uros
plati
inspection
##orten
##toni
retain
horren
rh
artemis
ethernet
sutra
monks
##akon
##mil
atoms
nac
mutation
oto
kurse
##loh
seville
##reter
##turen
investigate
secretari
liegenden
crescent
keynes
lazaro
##higkeit
gleiche
spotted
explanation
##ught
falt
beigesetzt
strain
##ngt
gelangte
nationalism
##ppu
monty
princ
##linien
vague
leite
wheat
kritiker
##wirkungen
dwarf
kraus
##brun
hostile
##zus
##ezes
1452
zimmermann
##mune
kreises
leonhard
inhabited
reese
##mys
##stena
cassette
mothers
##idel
archipelago
romer
##kation
leach
##standig
##gep
##dische
##haza
concord
##upe
kunden
##pring
##merk
##pelle
translations
zua
##fes
bauen
blitz
rangi
burnett
liar
prinzip
taliban
typische
clar
##siv
bentham
sopran
giver
##manie
wirtschaftlichen
##apo
##ells
hernan
imp
prinzessin
##netz
erte
liver
diaries
##versorgung
glad
leggi
rembrandt
ump
characterization
metals
threats
privately
stemmen
##ulose
##zew
##ellt
cables
chines
##ilm
sae
##hya
##mics
##sitzende
##girl
sonate
dekan
##mok
offenen
##lett
##ßig
kensington
ginger
##ulla
##yni
marginal
doha
abgerissen
##erz
##arie
##ims
##kungen
endre
##cons
##runner
longe
luxury
niemal
##porta
utopia
##lamation
##dente
##mill
gedreht
emerge
melodies
kavi
oed
##idio
##tges
##hog
eighteen
volcanic
##erike
velazquez
gedichten
##osia
jared
lew
zieht
##rants
ahnliche
##allo
guggenheim
abre
funde
kommandeur
answers
berri
quran
personally
##tich
##uate
grune
##bahnen
lind
grzegorz
##ilien
shields
heti
##musiker
counsel
eras
##mang
danilo
erworben
highlights
neige
ravi
2030
##pee
##venta
verstarkt
erweiterung
##quenz
##fet
enable
##reden
suppression
ermoglichen
##dli
dune
##hli
wissenschaftlicher
##igste
rotor
activists
2022
sker
##rekord
graffiti
instrumente
measuring
unterstutzte
machinery
tian
lehrte
troop
moreira
parry
repeatedly
essentiel
konzert
zogen
##abteilung
newsletter
councils
enlisted
gin
palme
##giere
##loga
##uern
##daten
conjunction
verket
jene
tunnels
hack
kaufte
##programm
achievements
mixte
panels
spielklasse
schließt
crush
moreover
##vr
tyne
bezieht
verkauf
kinds
suspected
##rur
rory
##hani
kool
##lha
kirsten
sekund
spanning
##lland
portale
##bett
eingegliedert
naturschutzgebiet
petro
##user
vorbei
processor
patente
virtually
##slas
kampus
##acki
opis
wonderland
##zir
##urst
hierfur
afghan
gregoire
paa
##gehoben
diep
boyfriend
##grass
danischen
severin
destin
laps
recognize
##chemical
colbert
ehr
lemon
trails
periodic
tablet
exploring
mitu
##tivity
##gestaltung
oo
##zeiten
brotherhood
##bein
##scio
##mage
##iest
frontieres
bm
grube
psychiatry
##gemeinschaft
begrenzt
karier
##lowe
##rys
fraud
zem
baro
precious
##halter
komposition
##amp
professors
feierte
unbekannt
##sow
capitals
nationally
fourier
rike
##trica
primar
spurs
adds
stel
##stici
geburt
tourists
kammer
rendez
jolie
parkinson
disappeared
nationality
##text
occurring
##raren
besucher
##arkan
magi
##agens
demanded
##gration
##ruh
quad
##round
##stom
veroffentlichungen
perrin
umwelt
deposits
giudice
underwent
##tute
anle
ließen
##scription
kult
##chtete
stanislav
usw
gießen
##lg
definiert
##pica
##bers
##cey
##toe
debbie
##nario
##rasa
powder
stake
importe
maris
##egt
##gaja
##risi
##pensa
##uben
ancestry
bulk
chemische
##ocken
##undet
constructions
sja
teme
##rtes
eina
nowhere
974
manuskript
sprecher
bibel
wichtigste
##nang
moonlight
proven
objecte
scooby
##plici
catharina
easier
erlaubt
fingers
##nch
specification
##regisseur
oes
##xea
begleitet
##verbandes
toys
##ssor
bliss
kaufman
stemme
##tego
paying
trager
##yp
rik
wingspan
ax
fraktion
collar
cambodia
chini
assurance
dogg
##vero
nucleus
##uhi
nigerian
trout
##iral
fruhere
##mord
##neva
##mex
bowen
##srecht
andromeda
confessions
##nkar
##vot
legt
climax
centrali
einerseits
##ection
##ifie
expressions
generi
dienste
##tierte
##ysi
raleigh
##drive
geographische
zonen
firms
intensity
varied
##nath
##itani
materialien
##uld
##gda
automotive
##bbi
lissabon
##ignet
supera
responses
inschrift
weet
ublich
designers
duna
##aling
premis
##chossen
##kman
settle
##ritis
##ticke
sundance
##bore
hanging
indi
##oer
grundsatzlich
##pson
decor
##clu
##rchen
##unte
threw
##firmation
##kedo
kendall
expertise
##ehan
anteriore
cyn
dikt
##arischen
##leistung
verboten
##vire
upgraded
impressive
##yus
flamenco
patriot
mcgill
burnt
##uton
##pation
dera
##phile
beschlossen
slater
##fuhr
oceans
entries
magma
fiber
sonar
concentrated
finnland
##satze
winkel
##stor
cascade
khl
##ribe
##eutu
##erto
zusatzliche
endless
##ylus
hauptrolle
klassische
mutant
contacte
hunters
##rter
guerrilla
##balt
##ularis
##prasidenten
##sigen
collecting
##teles
##zli
##lende
erbe
potentially
fathers
transporter
hort
##zmi
werte
harcourt
accidents
farsi
##barkeit
pins
sele
texten
immense
##menten
##sieger
natasha
protector
##inato
sprechen
divorced
##litat
ceiling
mango
lunch
streit
boarding
##emer
fahren
publish
mauritania
##days
layers
vete
##lever
##mach
beli
heit
pell
##gede
boxes
sars
##orp
##ldig
autoritat
##indi
##zelt
suspect
carolyn
handeln
##ntan
kenia
turkischen
bombardier
##date
##hav
##chnen
##dola
dokumente
##mits
##plant
marlene
penguins
machten
platze
##uhrung
##verarbeitung
abdomen
clifton
visitor
##ktis
wohnung
unicef
##lifi
##rweise
pasti
##deutschland
##kkus
##ited
watershed
##wai
##wirkung
pitched
##spartei
blessed
brach
solos
atlantik
##epe
goli
maca
finder
##ehnt
##flug
conventions
##nted
##vorsitzender
bele
##fitte
##hauer
##hafen
boas
##ezie
barna
wasp
nerve
##fair
##tandnis
kampfen
##ecken
necessarily
abstand
##roga
unterlag
unterschieden
franzosen
rajasthan
ech
##bito
feudal
##terium
bourne
ribbon
##naja
spuren
gefangnis
verfugte
womit
##fred
##ochia
##eun
##mauer
##esce
bestehende
entomol
mauer
crop
parit
szenen
##kwam
##nkan
inna
##ssr
##tax
##ikal
##jaci
##langer
evangelical
##oret
mackay
rees
##lsi
##given
gillespie
merk
##kota
kalman
deco
partisan
##pfung
salam
##heater
asset
supervisor
##risti
organe
raha
postura
##fand
tanker
##kod
##rami
##limi
##poru
##tli
racer
mitra
##eat
immigrant
integrity
petrol
tepe
##chtigt
brigades
##zah
##tering
##aur
shining
unik
nep
##mitglied
pools
sander
sensu
##hali
wiltshire
##celi
passione
rope
##ryn
hemingway
karachi
##fman
krankheit
##brug
gallia
lesen
##bauen
obituary
ballot
comer
##geln
backup
paes
lawsuit
##wedd
deva
moose
mustang
advent
lada
liza
slope
entwickeln
securities
americane
anywhere
argentinien
milita
##gebirge
symphonie
##erweise
##fini
substances
wirtschaftliche
mural
##belt
excess
lawn
remarks
lean
acquis
veranderungen
rosemary
##ibles
##ribui
diamant
ferrand
attractions
ying
moderator
##elled
##lente
internationaler
galaxie
##bildet
woodstock
##ollah
roba
tuba
##ionale
cake
aran
##rsta
planer
##eville
cad
sensation
##chtigen
bewegen
##taine
anges
meteor
epa
##dile
dole
##ahe
iri
koloni
militarische
tempore
##walde
angebracht
lesson
placer
##mod
##taining
##zers
##some
##marker
hm
notation
##pier
humanitarian
##entas
leith
##tiera
malden
sey
shifted
maiz
ender
##sstraße
fiona
walks
##vende
gipfel
ink
##kata
slate
preference
aden
happens
koni
##banken
##chlossen
rulers
decisive
foo
werkt
gach
pon
laks
cartel
manifestations
##pei
##ecke
##itions
nf
advokat
schutzen
encountered
yankee
##utation
investor
atkins
grabo
acquire
##oran
anhanger
##wandten
celestial
lans
##eig
##atra
1258
##under
##wf
##rh
larson
##mese
prints
##hto
##tc
##iber
##kult
witnesses
abend
ziehen
##besitz
##teilung
akteur
##orm
accomplished
ake
anc
laterale
##hohe
journalisten
woan
carved
##eral
0000
##nks
decrease
playhouse
##hrys
viertel
##veres
##zmann
oberflache
constable
cinguli
marga
##cone
##rab
container
tanti
##file
parto
expressway
certainly
hera
deacon
benotigt
ziele
##teht
##nute
##rimi
goldmedaille
##nente
privacy
##gebiete
nijmegen
freeway
placement
polka
hid
finch
##ewer
stunde
##dse
solido
##dation
websites
dob
##cor
##lens
advancement
##ints
regnet
angelina
japanische
##vide
gelegt
##eption
##hei
bartlett
fried
##raa
hundert
sekunden
##chicht
beeinflusst
##taj
lili
##tatus
tabi
fungierte
searching
##raya
##drama
##rayal
##rub
drittel
meinung
##kern
sange
lazar
##missar
exclusion
rooney
##bec
##enze
##mire
schließen
fursten
umbau
##nenti
convince
##chien
dul
rani
##kuu
##leh
damen
koe
##ufung
harri
##digen
mehrmals
elba
stabile
##sest
bekanntesten
emiliano
moglichkeiten
##shaus
equally
##gust
##weihe
##ically
klang
##ysik
fortifications
homosexual
malu
groen
##rinn
setzen
lotto
capabilities
briefe
extensions
trunk
offen
butterflies
honorable
##nise
katrina
##crit
##posten
tackles
##ipo
dunne
masque
##derer
##dorff
conflicte
corsi
##diq
stipendium
fung
aktore
galler
banu
niederlanden
optional
##richtungen
##retik
disabled
cups
activation
obiekt
erganzt
##stent
reichen
##ruit
projection
##ocio
unterricht
##iena
##serien
barba
##oster
##tenen
##lod
dive
##bereitung
badge
krista
##fund
chronology
cheap
##cei
camilla
blut
muir
flip
pandora
sektion
striking
anerkannt
frames
anleitung
violation
crema
rip
superficial
toros
neutron
jagger
##hke
##eberg
changer
##isent
typisch
##huld
gezahlt
##lesen
saken
fern
##ausgabe
##raden
cannabis
compression
konser
realizat
##inat
kasai
pile
##triert
properly
romantica
##diri
patriarch
##mbre
##screen
saddam
##beh
davy
astrophysical
eingang
##ples
##sban
##tritten
gattungen
ricco
##sserie
##uctive
brot
lear
nicknamed
solcher
dodgers
giordano
##esan
jungeren
ubernahme
automobiles
deng
##ezu
commissions
varying
coordinator
margen
sergey
reichstag
horizons
##haften
lilly
##chert
##intosh
##werf
serio
##ocke
ausgestrahlt
##werks
critici
pulp
##ikon
beschloss
taler
##cating
##verso
##sige
adhesion
##stander
olle
aktuellen
clarinet
iwa
unternehmer
##smal
hazard
materialu
carole
murad
##znia
clans
shooter
solide
anatomie
fab
bark
aris
##lberg
withdrawn
##niste
eingeweiht
landkreises
hoop
gronland
verzi
gains
mckay
jurado
reso
##chmann
oscars
anspruch
##ulei
rw
ural
##ginn
##stag
terrains
##ssystem
staged
weird
musta
##ulun
msn
wein
##flugel
reeve
duma
notorious
##dense
##hode
##iete
materie
##arty
dixie
kano
kamal
##amik
1491
geringe
mikko
##atku
##gall
freshman
golfe
unia
##retung
##lium
venom
##agan
##gramm
debutierte
biografi
##ndant
climbing
ub
##toc
bete
welles
hobby
##hone
##ibo
pursued
##hische
buren
ubernehmen
morley
##combe
planung
recreational
optimal
##lb
##oris
assembled
impressed
leisure
##iance
##reibung
##ssu
##forts
koha
##boo
##vall
##orme
##zdi
relieve
nea
imposed
##akow
##nchi
octave
rea
##dsel
cement
##lime
artemisia
verlangerung
kinas
usc
##owitz
ems
vuit
arabisch
##mised
fragile
##uggling
##iness
##uht
##erst
##uskan
##wati
2700
satire
letzter
##ogist
encounters
kunsten
oran
idris
polnische
totally
diesmal
##leute
heroe
konzerte
##reichen
humberto
##irat
punktu
##kapelle
entendre
peng
##reme
busy
##regation
1024
##lave
foyer
unam
##nace
##oida
otter
##gma
acb
js
traditionellen
wal
espinosa
posa
quote
##chiv
##umption
##perer
breakdown
datei
adres
trim
absolut
niemand
shed
vicinity
milliarden
apartments
##ruppe
##guard
integer
limon
babel
constantly
strangers
##ndance
rams
merchants
hydro
kreta
##lca
##ssar
tief
##riot
vase
ballon
gele
veb
##katzen
dokumentation
organi
##uwa
calculated
##cape
governed
pria
##iao
magnet
##sade
##ife
irrigation
luxe
angin
maureen
startu
proposals
brits
profi
consequent
##tilien
wittgenstein
austral
wishes
##quette
unabhangigkeit
##nkes
colonos
##ierenden
##theorie
##nduse
getragen
##rnen
gable
##she
consumers
##yik
pary
##thi
betreibt
indy
##seid
projekta
elegante
##hasa
##samkeit
##schloss
lino
##eries
shepard
hofmann
hymn
bard
##ciere
##iung
depends
lasting
vee
snakes
vena
orf
gewannen
verd
##itor
zuganglich
##eann
burden
apex
##trup
nervous
salvation
akte
ventures
##parade
brie
ste
universale
##odh
##antin
##ported
kingdoms
kolonien
##ndres
gelee
##gelassen
##duk
##kurrenz
bundesland
##sgesellschaft
kommandant
pregnancy
##ertes
comprise
zin
##kei
balle
hoped
##inate
##fugen
bote
streng
transform
##otho
condemned
temp
jm
coyote
interpreti
lamar
##ymas
argo
besatzung
amur
unfortunately
##nologie
##ßnahmen
amter
cary
bloomberg
##acha
dip
ruse
klip
oportunidades
##rieta
astronaut
wiederholt
##bolic
routine
##fant
dimensione
battalions
kemp
##culi
optik
##boken
kelley
shade
continuum
gpl
##ented
timeline
outcome
##mmte
freak
khe
##fugt
##meyer
confession
##99
##gala
##meta
kelvin
ministri
embedded
reflection
##willige
##yuan
isp
cdc
eigenstandige
sweeney
mehrerer
killers
##barn
##lido
##hanes
##icher
indische
##lined
genet
gleisa
##rui
##sala
##66
##tary
##utku
bucht
wann
snl
renommee
mim
##gische
##kne
festgelegt
spezielle
vault
heroi
##ombe
informa
##may
controlling
hitting
##zov
##ktik
##lae
torah
digest
mayr
measurements
traditionell
##mpf
capability
intact
allee
involve
##pft
tona
##etri
##wischen
##kate
##57
##malt
##normal
acclaimed
babe
hande
suns
##lasti
plastik
bestes
##gage
##kao
##ttere
autos
##video
thy
dominik
##vidia
yield
complexity
conservatory
rowling
##lehrer
##ografi
gail
berna
1398
plannen
##tjak
treffer
##atlan
preparing
agenti
canals
limousin
traditionelle
jur
thorn
##mpas
riviera
schatten
verge
##ymer
crews
##ucks
##rables
bombardment
elegant
dish
guc
bender
cousins
opposing
##pach
##etin
cle
##zean
physicians
directing
forel
suggesting
ethel
##str
certifications
##qe
rodeo
wahrheit
thug
##ezo
nd
raste
gie
inauguration
zara
##xie
masculine
##codes
karten
mening
##ßte
vorgestellt
##fond
##hutte
##kell
echt
xiao
mites
vorige
komma
kuda
##sling
offenbar
semper
anand
performs
rashid
kategorien
ratt
solare
schottland
conviction
partien
kabinett
##trop
abstieg
lede
martyr
wichtiger
##blik
geologie
convert
bestehend
##zial
cen
haunted
ruhestand
##ached
##jong
hast
##eise
##wt
##statten
astronomi
mobility
metric
sentiments
minerale
tschechien
##kammer
repeat
##viertel
##lba
celia
##bber
##urgie
##schef
##isma
barracks
engagierte
gis
brazzaville
##hdi
erfolgten
juvenile
warehouse
verlangert
##baud
##cended
lawyers
paral
soiree
swart
cuvier
dealer
##emon
##tiert
serbien
angeschlossen
sits
##zeichnung
mangel
##heart
##zita
avi
amc
gaben
griff
chilean
keeps
mung
donation
errichteten
##otype
##atal
##boja
##osh
##raut
jh
papp
vorkommen
aer
carita
medali
##shima
porno
tages
unterschiedlich
attentat
##sung
ancestral
solely
cem
jamal
##vato
thrown
burgers
qualifications
praktisch
rucken
wigan
reads
twisted
strecken
##istor
competitors
##adle
standar
legally
erfolgreichen
colts
##heng
interpreted
wilden
##traf
##tip
syndrom
##bid
oleo
##pala
##unki
##sale
verteidigung
badly
steg
harz
##ragende
##fert
cheney
flooding
mers
geni
gotham
teenager
recommendations
##tave
empires
keiner
gemeinderat
maschine
voc
##bring
elv
##rote
linares
apps
jaa
miners
t1
antiken
##sieren
vereinigte
agen
##nose
godzilla
##ulator
grob
gym
##wise
mariah
##wc
falk
finest
ubergang
##tuck
mutations
##valence
paj
aussage
konstant
bowman
perl
corners
pentium
##grunder
tamm
durban
##wark
bias
desired
semester
##vary
hierin
dreyfus
focal
greu
stephenson
##siti
spieltag
pieta
selective
##ceptible
etablie
##orin
photograph
##stop
registry
noon
##nott
ck
banker
##macher
fuhrenden
##egger
langsam
##kill
seeks
angular
decay
##vage
primetime
tops
##biology
##gischen
##mberg
incredible
kathryn
##landes
ideology
retrospective
immune
meistens
##ilon
elders
gibb
##alog
agreements
hugel
topp
audition
lorca
##ssie
inti
##hauptstadt
##odik
schild
wur
umbrella
##nning
ferran
mps
dogma
pane
balon
mabel
impulse
##pula
dolby
ducks
##cheiden
mundung
polly
##fahrung
ereignisse
croton
##mitting
##bble
geschaftsfuhrer
##zuja
ike
##lore
dramaturg
austen
bucks
tuberculosis
##ngene
edges
##teta
##wide
vorganger
anas
##dington
##historiker
shores
##seri
lesion
practiced
##afe
harder
logistics
existenz
mochte
meridian
##ctos
hoff
entgegen
vize
##heben
##undi
accuracy
taurus
transported
##juan
grandmother
lade
##tehen
acknowledged
##ismen
kelle
##letes
##lasst
wichtig
instances
##drial
##tona
##ekten
forschungen
mosquito
##isel
einfache
institutionen
drummond
lindsey
##ostas
wirkt
##mlung
##otten
renn
tiz
##ads
##nacht
##bungen
auction
##twicklung
horde
##iper
##ifer
##familien
pesti
pj
##200
052
ministerium
yeah
darstellt
##kteur
##eber
socialism
##baru
##laufen
skate
dickson
komodie
revisited
##ptic
clips
peculiar
##soft
yahya
##pse
beschadigt
ferris
schritt
upgrade
##hrte
##kinnon
hygiene
##chtig
mead
##person
mea
veins
##zern
balik
benzer
technisch
hollande
##deni
vacuum
ideologie
malen
bundes
kalte
tragedie
##szone
##embe
sesi
uva
##lisk
##ffo
orchard
##metrica
ldl
loge
veld
konservative
lula
##giver
##makers
##matic
erzahlung
prominente
esch
regionali
##iedelt
##ghing
dyke
sate
bosh
ila
##raume
##geschoss
inferiori
passive
prod
gebrauch
succeed
vorte
##talen
##estra
scattered
regal
vora
debris
##pone
geir
##basa
##hry
balkans
motivation
##klos
##wyl
puru
serb
##zius
puts
landa
vielleicht
dese
tes
jasa
##opes
##urke
doppel
joo
##zk
blum
teller
sikh
specifications
beteiligten
##gebrochen
roach
furious
##gating
withdrawal
##akademie
##enic
einfachen
kinos
##dogs
rites
##vb
lime
daytona
abbot
habit
reserved
arcadia
curitiba
elio
carlyle
sho
##ponde
strongest
ataca
##pert
##ienti
m6
##lts
##was
nets
mair
##cend
##hly
osti
regulares
ruanda
whitehead
##langen
048
uberliefert
##izer
relevante
sarkozy
culpa
taglich
##adne
##break
invasione
##brochen
##sieg
genf
##bam
##efa
virtue
nevis
softball
politically
##wechselt
bullets
##geht
canvas
durable
laude
selma
ansicht
christchurch
braves
sterne
##tzt
smo
asahi
crashed
prussian
sog
##chriften
##vinger
exceptions
##pfer
damaskus
##sonne
deeper
cathy
##raben
##ingham
##klis
bekommen
candida
overtime
##eckt
rase
merci
mandatory
atha
##yment
##itten
##opolis
##brick
##aurus
1391
wage
couldn
##ertu
dhar
immortal
##tsche
shea
##cl
##immung
##tante
levant
##oar
stie
##chuss
cyr
##bea
obi
##ector
accordance
##kultur
##rb
nachts
deis
defenses
researcher
swim
##dinis
##rook
witwe
cubs
##itura
indischen
##anischen
seller
albatros
obligation
beteiligung
seta
wah
##ruckt
englischer
##quert
gorilla
tgv
##omium
galleries
originali
stamm
##citation
##lture
##enari
##lying
##redi
hormone
niko
sebastiano
learns
clone
vulkan
##inted
elaborate
##ulle
##grim
mortality
entwickelten
pronuncia
rechtsanwalt
##gest
thumb
lovely
##leb
silbermedaille
voluntary
verstorbenen
mistake
wilkes
salaries
##urou
apollon
diamante
##terie
lorentz
##umer
entitat
berlina
##stee
##lso
halte
voter
##riat
tract
eme
##rans
cirque
decorative
fights
turtles
##ivt
baume
##ousa
beider
prehistoric
spacecraft
trapped
##eart
stabili
legere
diagonal
##stitui
erinnerung
menschlichen
##mau
mec
##oxia
##yid
lsd
rame
sloan
##ccato
##arska
##gieren
garry
##hyd
abigail
spanische
##ropus
krebs
australische
##gari
grip
holle
##pend
airs
oe
##turne
##wohnt
mascara
posada
radikal
##fenster
##brica
harrington
##gies
lokomotiven
parlamentare
complicated
cleared
vitale
##tient
##tration
lamp
mystic
repression
##trie
lamarck
##tanen
##vesi
blaise
ceremonial
portu
tuna
##spolitik
handled
##anische
governmental
maynard
merge
proceeded
##artement
terminator
##went
##anc
explosive
goldstein
tips
##xs
##kry
##cain
hacker
absorbed
cliffs
gravi
interference
salim
##frika
##kosten
##take
ausgebildet
watched
arabische
stellten
grein
indicato
coordinate
wound
##zur
##bilder
afraid
nachfolge
##amment
dramas
separately
predators
modules
forestry
brunnen
##arische
indiens
##llium
upset
argue
oboe
##anning
##ffel
##rundet
##verzeichnis
refuses
##cuit
twain
##leu
animo
cert
solida
##erbuch
chirurgie
##jani
morphology
##nard
derselben
personales
##vereinigung
osterreichs
geblieben
krug
enormes
##49
##hlon
gezogen
desir
ausstellungen
##hita
##vies
##vorm
##later
coppola
konsul
worse
##green
araw
kopie
##tp
##ymes
shri
physically
skeleton
1369
builder
##veti
m4
##asis
felles
##fizieren
##teile
dialogues
ingenieurs
##pect
cockpit
bain
geringen
pasadena
siblings
##nisce
ausstattung
designa
sente
##dros
obvious
radcliffe
##ipt
##ultat
gelangen
ewa
##bnis
goz
verletzt
##korper
eliminate
sudliche
henk
##coa
##endium
pf
implement
zebra
##verd
fier
piz
miracles
celebrations
festen
##llah
aeg
teleskop
aval
luften
dinosaurs
vuci
df
##tib
pizarro
außeren
agrees
amerikaner
bankruptcy
promises
##hende
veroffentlichten
##gift
kanadischen
angeblich
grundlagen
##okawa
erforderlich
keele
paddy
ubergeben
##toff
##opp
erheblich
##hava
##tigte
carriers
chah
archi
comp
##auri
fei
##yot
##tles
##visione
gsc
##ofi
salman
barons
institutional
gesprochen
##tinen
deceased
##rner
##tiary
gradi
gentlemen
##xer
ballard
bsc
odds
boost
reelle
ruin
##hlo
deaf
besi
rational
##bato
##mpet
herder
sti
heimatstadt
##slu
desk
##ksal
indes
##ilte
##parti
##eins
domains
##onder
acc
rasch
anwar
heidegger
hohepunkt
##haben
##ilde
interviewed
believing
deployment
ums
##bris
##hmann
flach
hawker
arpa
enge
gebaudes
##sac
evacuation
aru
vertriebenen
##lular
spark
##uell
acceptance
feud
jungere
##jec
eigentlichen
##erdo
moglichen
muste
guise
##rpen
payments
##bian
##rns
lasten
conceived
ness
kompanie
schulze
updates
##44
dsm
simplified
decreased
bullock
##lci
snail
##liers
nennen
pigeon
##aer
choral
##cac
##erry
##wolf
precede
##dliche
##iaco
eben
r2
vaca
prasentiert
privileges
unterstutzen
jahrbuch
employer
##muth
breakthrough
underlying
##akte
aided
ahn
##wned
##bate
##ntiel
##lette
blaze
beteiligte
penis
slopes
vagen
poul
wr
##ctu
trennung
alternatives
##active
##erot
sins
##iator
depeche
##rating
##staben
vides
testimony
##erni
paths
##quets
genver
mutat
garner
##steiger
hutte
##gad
jt
helden
panthera
klass
tutor
uae
alih
geel
exhibits
freed
##mette
##landische
barth
berichte
nih
avalon
rails
##dhe
fernanda
settings
verteilt
##ival
g3
zeno
transparent
marching
schluss
##2011
cactus
gauss
##herren
radia
##hnten
##remo
abhangig
##zoni
lowen
##ebre
fol
##svar
##tief
abundant
lektor
##ndering
##partei
##wissen
carmel
##oben
geldt
gosse
simona
##cesse
intensiv
occurrence
##golo
##immen
##cacy
reussi
preview
geschwindigkeit
##nting
##sud
##mley
pubmed
034
dreimal
##eicher
k2
fehlen
##minat
##ploy
##richten
##blu
##xit
##nagar
leu
stratford
dancers
wohnhaus
##ogan
##prufung
oxide
salary
antenna
neural
##pue
samara
bohm
oblige
ambition
baka
crack
##heus
nsa
toole
heilt
susana
considerably
proximity
##itsch
##quiert
lm
##ichten
sylvie
##olina
behavioral
conversations
reiner
##auf
##udel
kollegen
suu
unsere
grasshoppers
courthouse
anaheim
##ohen
wee
gilmore
##uline
surveys
##jing
excelsior
##viar
##rins
chemicals
falcons
quat
suppose
untersucht
gibbons
##ibilita
gezet
islanders
##wettbewerb
erhebung
virtu
##horte
arap
##sans
##course
##hiza
bunge
whitaker
beobachtet
peaceful
##plano
rac
davor
##orce
poorly
##bum
gestig
plac
suffrage
statusa
##delig
developmental
aufgegeben
lips
fann
##asy
##bahnhof
fiore
umfang
##jaus
##chreibung
abortion
##erum
##wani
sometime
abtei
##nehmer
##vore
fassade
fusione
##kner
##reformen
##enis
steep
bly
harde
olson
shells
entspringt
grenade
canary
vacation
##ouci
classroom
henan
##slager
indra
##eyer
pretende
antar
adulte
haza
therapie
##dret
tit
boo
schafer
domestica
##atit
##cence
##chnung
caucasus
dairy
gob
##ichtigt
festes
shek
jimbo
sentimental
bjork
##jahren
##calo
ape
direkten
muscular
damm
dolphins
revived
eurasia
haram
mca
moneta
mormon
##luge
##rson
zette
prou
##krafte
##kson
ants
mengen
##ringe
gelb
pea
barisan
##elne
##metry
bauwerk
likes
alexa
expectations
novae
shim
leute
sonder
manifestation
##duc
kul
miniature
rost
krieger
maßgeblich
ugly
solve
podcast
bridget
documenta
großtenteils
trigo
rounded
surgical
##oute
##ebene
##gru
##mint
uh
wollten
##lote
komitee
karan
##mell
talmud
##peni
premises
recover
##anio
marking
bison
gesta
spat
rendered
devotion
toon
##cube
##hrung
##stern
metier
##regionen
morrow
spo
oceanic
##pielt
##sfield
##cutor
xinjiang
##placed
underwater
##jok
##lami
##plar
##ussion
##wley
conceptual
burr
cheryl
##going
##amme
scientifica
recurring
##ologische
socrates
historisches
##enty
audit
##zter
##ografie
##kovsky
charte
corporations
##dotti
##iose
spare
bedient
##cated
biologi
organizing
##material
kilometern
##etzt
gamble
crusade
dialects
erweiterte
stripes
zola
##euil
##gehenden
##valta
##wusst
remi
sunni
##ltu
pupil
##rbt
filmmaker
monterey
##urer
##yku
##setzungen
goodwin
resolve
engagements
collapsed
lennox
holidays
##maler
bulle
##fam
##lska
packers
yugoslav
aspekte
marconi
##slid
##sprach
demokrat
joke
paradox
prat
##msa
profits
anderte
##dyn
##fran
##lgare
##enau
kopp
##zitie
commanders
risks
##esz
##aves
ht
steal
mogen
phyllis
sokol
##hohen
parody
possessed
positionen
##grunden
sellers
##tides
crossroads
weltgeschichte
bedeutendsten
ausgaben
##eifen
meo
sardinia
pioneers
rer
##felder
##stated
loyalty
##nkung
ermittelt
##stadion
concession
##ifying
##undan
celsius
germani
lip
rainy
goat
westliche
agn
bethlehem
australischen
kraftwerk
##rious
##ecki
beside
##nnung
1252
##timet
##leistungen
osbourne
vali
jointly
refugee
##stellt
fellows
treatise
##ofon
qaeda
brewer
##iteri
katharine
luk
##deckt
##medes
pina
anwesen
##egio
##71
##sb
lacrosse
##cox
bek
##xel
sufi
##diske
emblem
##tatu
##delle
galia
percussioni
##wirken
sartre
helicopters
##ziger
##ehn
unofficial
facilitate
##eister
hazel
abenteuer
psychiatric
donations
##dbu
statute
sauer
##stve
##wag
##reb
theologe
zenit
##urm
##elten
##nial
##ception
##group
##motoren
##geschlagen
taxis
suffer
objectives
magnificent
tort
lobby
overcome
advised
e1
vertrieben
urkunde
availability
habib
##uum
royals
renovated
dial
graduates
voye
##kna
##amerika
##uino
##offer
umsetzung
##licke
##pulation
grimaldi
##itats
##gane
##icks
takashi
tooth
unterteilt
##uttel
destroyers
discrete
prostitution
factories
mentale
##ofen
moj
##sker
jewel
phelps
##ussy
timing
##platten
##anis
profiles
##tint
pottery
preventing
##olen
alamo
bypass
##vela
regionalen
##cere
##tons
indigo
pathways
mittelpunkt
sprinter
##vah
rig
##usega
##fim
##tted
calder
repairs
sebastiao
slash
##ddle
bartok
pastorale
##olte
##ließt
unterstellt
horns
##hetic
##lope
##umet
heroine
##hde
##sioni
##jahriger
definitions
regimes
##gri
graus
fisch
geleitet
sinus
dart
blame
##henti
##2013
pita
dosis
##pori
chanel
vermutet
##ichte
##vader
##retar
1229
oecd
##horde
##onor
##paz
credo
ingredients
##zun
scho
gum
assisi
1x
##comb
##making
unclear
brut
purcell
coc
##latz
##talia
immanuel
schott
folie
jas
##echte
epstein
nail
ultimatum
##rdement
##tiere
##zies
deg
fielen
arabischen
##sandra
##ichnete
kaiserlichen
integriert
trafficking
wreck
stol
##osition
auk
##bruck
voodoo
riff
mosaic
scandinavian
##laden
##kreta
cubic
##eley
##perto
##feldt
orson
##oping
niece
havel
zellen
##ngde
tende
##sitter
briti
divi
##kies
seele
skulptur
##ikistan
##rbo
seals
##noty
addiction
##aven
##gera
adria
mariner
witt
##niveau
##thetic
##etic
charitable
excessive
##zbe
maki
redakteur
rowan
vp
##inant
##yth
gand
gje
stud
##beit
lanes
rid
whitman
gideon
slip
clin
titels
careers
jahrzehnten
liberals
sack
lyndon
##guen
##rierte
basses
##hue
xua
amerikas
knocked
karrieren
peppers
reunit
attract
##banks
##bob
considers
##darsteller
##uite
adalbert
##zend
jagd
##figuren
bedarf
kater
##kanten
paige
painters
piloten
molekula
naturlichen
nasser
##rator
klare
majora
reali
pil
habits
##gatas
rms
lantern
loyola
##tans
bode
airplane
maguire
##seitig
rides
##lef
lita
exotic
tizi
ergeben
blocked
erlebte
##verte
constituencies
lynne
reglement
ince
##bucher
innenstadt
geschlagen
kontakte
##gender
warum
flote
bubble
critically
##passt
combina
synes
##wach
reiter
reliable
##fine
##mitted
formu
gerne
veget
##thes
fot
##vete
traction
beds
epsilon
flugzeug
eid
ladder
sporta
erzeugt
##gekehrt
erdi
goddard
laufen
schwierigkeiten
ainm
defenders
entschieden
galo
varian
berichten
manj
##rilla
bereiche
sandstone
springsteen
##fronta
demographics
bildern
##formigen
##culum
##endes
##nament
tulsa
##ngur
ethiopian
genealogy
phenomena
posen
capra
kaspar
elektronische
eileen
koper
vorhandenen
##nick
versa
ramses
michelin
savings
teammate
##werker
##aith
##bula
plague
rowe
##bischen
##delige
diensten
rk
presenting
spielfilm
##wurf
leap
##warf
hanc
hh
##cesso
##gungen
synthetic
wizards
##pont
##stitution
##chlagen
impacts
queer
##briu
##ductor
disability
##ricke
##cony
##pieler
jess
stam
##berga
##sische
egal
dolphin
cama
##askan
jeans
lak
stellar
inspektor
judaism
tanz
faste
protecting
botschafter
barclay
nutzte
compromis
loans
##retti
##ishing
##lys
##nios
kritische
##cadi
swami
welle
thread
flats
##takt
responsibilities
##etar
##ssed
gestorben
prohibited
philosophe
##isierte
##posit
beard
programmer
amplitude
##ground
##timmung
##ngent
##ruce
##fect
orr
##poly
faye
collaborative
gua
struggled
##miert
seega
stony
capelli
fringe
v1
##klich
1311
kidd
lightweight
lla
usher
funky
##ncer
commerciali
resolved
bereit
snoop
30th
arrows
unternahm
explicit
##horigkeit
dow
internes
dedicat
niza
##iend
##pflege
##while
drunk
##posti
##qing
reformer
servants
demonstrate
memorandum
##mentali
##wol
awakening
reduziert
literal
kars
##fiziert
algorithms
##aber
rutgers
##ardi
##chickt
##dessen
novelle
##ticus
surya
botanischen
nunmehr
plattform
eps
##politan
famine
accords
sati
carriage
##ierter
##rbeit
##llige
befehl
##fante
##nnut
##igkeiten
##clure
whenever
fortsetzung
adolescent
alliierten
dunlop
##pten
##ulture
##hebung
grundschule
morali
verlust
gedanken
##pter
##ustel
ermordet
freundschaft
planted
geandert
zulu
##dines
##jenigen
##ntwortung
komet
verleihung
##osse
##sone
cartoons
nochmals
elderly
##pest
g1
removing
gesto
##iyan
myths
gefangen
##kori
sichtbar
gazi
iain
strid
##gann
##pinnen
huxley
abgelost
mania
demnach
zeichnungen
##ilig
topography
dining
##rebu
unterschrieb
##zoi
##nase
voneinander
##nba
qualifiziert
##nzeichnet
f2
##bode
mannern
textil
##stellar
artifacts
crist
##skin
depicting
wired
contrary
##iterium
commercially
warcraft
umgewandelt
beschrieb
##losung
predicted
systemen
distanz
olt
lauft
bieber
drops
mittelalterlichen
##graphic
dodd
100m
##tome
miru
umfangreiche
##verdi
mende
##sible
##torischen
vico
kritisiert
##viri
ops
esqui
##embar
locked
haynes
absorption
spite
trou
indication
rucktritt
ld
chai
contributo
longitude
##technology
pivot
sande
ganges
##mert
consistently
finche
##abra
##mmlung
roe
sexuality
respond
courier
##father
##gea
vand
ambulance
florenz
##fla
##tille
t2
##menge
##sese
wandte
##haw
attende
viewing
imported
##usko
kindheit
stepped
##gnose
##ebro
fermi
##chutzt
cory
gage
##ranea
##slan
nucleic
hepatitis
gefertigt
oath
##donie
##ikas
gerat
quaranta
hurley
##noy
##pow
partout
mosses
##ndert
chronik
pir
signale
zweites
##nev
lom
ethical
soci
##taker
##ersen
tailed
##anat
##roat
geta
nece
blades
postali
peach
##teller
soyuz
gradual
lesa
##irati
sporen
##erien
throwing
canoe
loading
tart
##mittlung
erhaltlich
##97
typs
##vable
abgeordneten
maat
bounded
squadrons
##ichnen
##sstelle
2025
urteil
##ategi
airports
##nige
##misi
##backs
cora
manifeste
##fasste
munch
relativity
vektor
##pik
atoll
elect
##hach
fertile
lebenden
##nende
##meri
##bisch
##hrad
##uvert
loew
stamps
falkland
gering
hail
coelho
##trage
##auto
achieving
doktorat
madura
scorpion
parka
atal
larven
personlichen
educator
schilder
##owed
##cau
##terien
distinguish
jolly
##itta
musikalische
p1
saleh
passport
##bani
##teg
midwest
##prem
##tment
erhaltene
sendai
unicu
##vko
##professor
jemen
##fum
ausfuhrung
lisi
precedents
stiri
##sprachige
datiert
lamina
##nitat
##oms
symbolic
##linea
##pagos
neuve
finde
herrscher
staying
satisfaction
preceding
##deko
##chent
##vollen
obstacles
bazi
##bors
scripts
##smark
##hance
rotary
neuze
mez
damas
lasa
unexpected
##olit
custody
straßburg
##igation
reflects
##vade
anker
versuche
##cany
italians
lethal
subaru
degradation
ganga
naher
obersten
##inisch
redemption
aes
##eisen
mitos
##ferne
dinge
eingebaut
erklarung
cisco
##brechen
parachute
reward
differ
neuseeland
##tiker
henley
wissenschaftler
##achten
discharge
##ellung
##tart
hangen
horner
dauer
fraction
fears
submission
lister
vielmehr
potomac
##cidi
1298
murdoch
obligations
pipes
##rerer
allianz
##zwungen
playwright
brewster
errege
##dc
##osso
##uem
attitudes
##dva
##pital
genetik
merc
nw
continents
##iniere
##mmes
##blanc
##chera
##unterricht
blogs
##beste
lineal
orchestral
##ntz
50th
barnett
reca
listi
##kilometer
##ews
asteroiden
phosphate
##letzung
##nkte
promising
kohl
sovereignty
uncertain
##bali
##lmet
linus
soup
##tigt
##centra
##aky
##chta
shackleton
scar
directive
durften
entities
##rustung
blunt
##freien
##hiki
auta
sheets
ungern
aquarium
saves
rag
diplomatica
##ghan
##kland
##zhen
depicts
muri
##strahlung
##ubo
##bation
##erem
daytime
##precht
vanderbilt
##wein
##farbt
fruhe
##eged
##roth
tote
##curi
##fti
##raphy
##sra
zugunsten
picnic
##radu
krafte
##riks
carri
ansonsten
walden
##beri
##idar
##yad
continuously
##iis
sudwest
##gesen
##kritik
leichtathletik
mulder
##bm
russischer
tourismus
##lv
##pressed
weinberg
vicar
verlief
natives
medizinischen
##mitt
##nara
mckinley
cbn
fal
##lemme
##mmi
raume
##hosa
##treten
effectiveness
suk
brush
hyper
pathway
zerstorung
gma
herre
linking
niki
kure
exercises
danna
##neiden
##worthy
kost
sorgte
##zumi
##ichert
logical
outline
mysteries
qal
##slos
soho
tierreich
##bant
attractive
eiffel
komik
##erly
warhol
unlikely
yours
##laci
dustin
piston
hades
lucifer
tear
##andet
koordinate
##wis
##sbahn
bust
marisa
##rdy
pistols
##stab
berlusconi
##lites
hieronymus
##teze
golo
osam
paket
bezuglich
ricard
##ieran
##hrax
runaway
##aina
##rians
##lerc
pluton
obere
verwendeten
##borgs
concorde
##vud
brune
##ressed
gam
confrontation
jacket
##rsal
##sity
conservato
faithful
##busi
zugelassen
##iwal
##titut
zoologischen
aubrey
mino
aussagen
##keti
##cade
hiding
versorgung
grundeten
##portation
##glichen
##swahlen
ambit
chick
mogliche
##lopen
knud
##matis
##nasse
##psy
manifesta
arka
harad
nitra
sears
##teo
soko
cru
examined
infections
##erski
muster
arose
hindenburg
lem
##inget
1292
hochzeit
pow
trademark
##lep
##aner
##shing
ancestors
##lektor
bats
erken
wachst
##mier
korona
##ccus
##loaded
tg
dyer
##drom
adjusted
adidas
multiplayer
##zios
incomplete
##kante
obscura
##gestuft
prospects
##klaren
arran
accidentally
jovi
triathlon
##nalist
##pato
##guts
##ingo
linde
##enak
##leno
##rond
##yclic
glucose
ringen
interpret
nachkommen
##stoffe
carn
beatty
boote
gotta
ortlichen
hinten
##loo
##ligste
besucht
electo
recall
nordliche
frida
lyric
walked
louie
##aun
##zeera
jugendliche
starkt
std
strips
##chier
medha
##bindung
facial
projekti
sexuelle
041
elev
greeks
##rochen
geheime
##chiff
##sner
liberalen
kooperation
nyu
##ronie
##zige
italienisch
##gzeug
##langt
psalm
##riera
eureka
aufgeteilt
offene
investigated
##kloster
infected
nude
brake
naturalist
disciples
chartered
##cultural
##jian
ballade
##litt
flashback
##erlich
##etis
flowing
gladys
rondo
cava
##lern
nonetheless
ppm
##snes
##gnosed
anderungen
ministerie
rift
underworld
lize
##liner
orin
interesses
kanji
moller
wende
repos
##zere
##edit
brig
jochen
memorable
acm
anforderungen
hydrophobic
frisch
respected
cried
finanziellen
krise
##ragung
targa
##leto
##kolla
##ufs
schacht
skies
imf
##eneti
eruption
grossa
lufthansa
##arts
##raphe
livestock
##lub
challenging
##agn
tl
medea
bruch
impuls
wow
beings
wards
questioned
toka
##stucke
##doc
bop
##metic
##mka
gw
providers
##axes
milliard
lindberg
uranus
##erou
##loma
##ielle
brace
switching
bizarre
carmelo
lal
##zehnte
combining
##berly
romos
branded
##efe
promenade
sek
##ibil
##smes
innovations
##meru
##onium
branko
lebanese
sends
##fronte
##lanti
ferma
usaid
##sministerium
##zoo
agro
##idence
auftritte
karne
##pies
destroying
##wad
thorne
##brucken
##gba
gesundheit
##aure
stripped
famos
longtime
vocation
bezogen
hoffnung
briten
organisierte
daina
##mide
nuclei
seasonal
##bell
##widmet
##sura
counting
astor
##erkt
germanic
##wels
##chehen
##ctum
amen
##latera
##rekte
##rdet
bombas
##ochy
strawberry
##renten
##rooms
curves
feuerwehr
solange
##chau
mie
##nderung
slobodan
recorde
##pende
##duction
##reiten
##aps
cessna
##zb
grady
stehenden
kaye
hydra
schweizerischen
illegale
interpretations
brenner
##atze
cerrado
psyche
##ands
butter
shankar
versuchen
dynamite
##ochen
rasta
##geschrieben
slaughter
##verbindung
##eisch
brauerei
eigentumer
##klassen
##nees
##reut
##ilie
conquered
dik
ftp
##rott
ornamental
rowing
pharmaceutical
##show
##licable
##tography
##pable
##ctia
##imenti
dienten
solares
verwenden
stalingrad
camel
regula
fundamentals
##omb
##rily
kinase
##ftal
eigentliche
streitkrafte
lest
counted
hauptort
##niers
delegate
tory
fabric
blaue
simons
##logues
boyz
keem
##maki
##rits
gendarmerie
##fni
##mentale
inheritance
##utore
gifts
##cupy
##rones
##sprechen
newer
##cture
nal
aol
##xus
fordern
transmitter
##tula
generell
##harian
##srunde
##ulco
##gitt
##otov
##ross
arabie
rug
##hrstuhl
##organic
mohr
ausbruch
##giri
disneyland
##itzer
vishnu
##wari
##tician
mut
##gerustet
sula
lennart
##rece
suchen
knopf
tones
##fauna
##brauch
lozano
##natu
##zungen
acceleration
colla
costi
custer
stacy
oftmals
##penn
##wolbe
maltese
tyrone
##geen
continuat
##mmar
sauber
##diel
kraftige
komponen
livingstone
accredited
engagiert
##ektion
erscheinung
jahn
procession
generating
resonance
##chenden
vicky
hangar
rx
adopt
ives
prada
ausgestellt
##iffe
branden
christy
mistress
accusations
##giss
carrillo
afr
boll
buying
##aver
##lieferung
hurricanes
passen
coordinates
inhalt
prosecution
undan
regulated
naturliche
poetic
##hans
##olan
##roco
cosimo
##ruba
trich
##sgruppen
zeitschriften
##dling
noor
##ckten
moshe
##oron
unserer
vivaldi
peterborough
schwestern
patel
frequencies
textu
beschrankt
##hindert
einn
dealt
universum
##llion
verliet
##backer
spatestens
##ffington
##ubt
saran
shoe
wiederaufbau
bites
fatale
klubs
cauca
renzo
##wendet
embarked
##chsen
##omosoma
##rein
##apped
exceptional
pong
gitarrist
shame
tet
##taen
accompanying
yak
##erste
##winkel
##intyre
marathi
##gebung
countryside
garder
##ibel
##rimo
goda
##selage
##vidu
veranstaltung
curator
durchaus
dartmouth
botschaft
muscles
##reichend
kathedrale
##etra
##posta
foucault
##krona
sager
##terol
##yok
smallest
##walten
barriere
inlet
##itisch
##wde
unentschieden
##merksamkeit
schaus
dreaming
##iee
jain
allerlei
continu
adagio
likewise
dile
discourse
roti
sponsors
ehemann
proposes
##fus
##gelost
brink
incorporates
##covered
##chied
fails
kori
spotlight
##nake
##queen
gesicht
carthage
mcdowell
##firio
##edelt
christiaan
entdeckte
weite
##tional
gepruft
##laz
##kstein
disciple
sonntag
##gangenen
complications
schemes
##¥
